
/**
  ******************************************************************************
  * @file    network_har_data.c
  * @author  AST Embedded Analytics Research Platform
  * @date    Fri Oct 21 15:29:32 2022
  * @brief   AI Tool Automatic Code Generator for Embedded NN computing
  ******************************************************************************
  * @attention
  *
  * Copyright (c) 2021 STMicroelectronics.
  * All rights reserved.
  *
  * This software is licensed under terms that can be found in the LICENSE file
  * in the root directory of this software component.
  * If no LICENSE file comes with this software, it is provided AS-IS.
  ******************************************************************************
  */
#include "network_har_data.h"
#include "ai_platform_interface.h"

AI_API_DECLARE_BEGIN

AI_ALIGNED(32)
const ai_u64 s_network_har_network_har_weights_array_u64[ 25163 ] = {
  0xbe798b3c3bb9ab71U, 0x3e09ef06bdd0e7fcU, 0xbdde12e4bdb68e36U, 0xbd8e2ac83da25557U,
  0xbda99885be29f542U, 0x3d6de55b3e069901U, 0xbe69aa7bbdaeb876U, 0x3cd4ec95bd09efd4U,
  0x3cd6fe633ddd7036U, 0xbe28a270be30a164U, 0xbe017219ba8b7ce1U, 0x3dbe74a6be2cb2fbU,
  0x3e0e4bb2be519b29U, 0xbe0838c93d40b072U, 0x3dd935403e0ff3b2U, 0xbdf1f50dbdd9933fU,
  0x3c4eff71bb820f6bU, 0xbe3df385bc3a9dd0U, 0xbe0a14e9bdf73f74U, 0xbe08cc61bd965e43U,
  0xbc1e3ba73dac5daaU, 0x3c81306cbdb10224U, 0xbe3ee6913dc52f48U, 0x3e33e292bd872440U,
  0xbdf6c8ffbdb764b5U, 0x3dad23313dbabe2fU, 0xbe4bf8f4be219063U, 0xbdcc6573bd5de21cU,
  0xbcb2a969bd4a149eU, 0xbc8f5d0b3d43ab7aU, 0xbd1419013cd6cbeaU, 0xbd85314abe2de620U,
  0xbe0a726cbdbe93f5U, 0x3d54cfa53d5c3f01U, 0xbbb698943a9890abU, 0x3ad63fccba76c713U,
  0xbc32b90fbcc947f3U, 0xbe14a15ebd4dc9d6U, 0xbb90ac49bb23d825U, 0xbb9c399c3af03e75U,
  0xbb668636bb132931U, 0xbb5ea5673b0fff78U, 0xbc1251fbbe2a1683U, 0xbd8ad8f23e0385f8U,
  0xbb1fc26ebaea095cU, 0x3a8c038e3a859161U, 0x3d01f2e7bdaa7079U, 0xbea25f62be13719eU,
  0xbd2ab52abe04eda7U, 0x3d91d9793dc30cdeU, 0xbde1339a3d7f920dU, 0xbd215b3c3d8155faU,
  0xbe0df4ee3ab6cdb5U, 0xbd833a313dbaf97fU, 0xbaf070c9bc5ae35cU, 0xb9f2c04b3c22e064U,
  0xbe0605c3bda1003dU, 0x3e0a1c1b3bb9085aU, 0x3b2b0232be1559c1U, 0xbdcc817e3e1890afU,
  0xbd7918d6bdb901fcU, 0x3d82770b3dcf4585U, 0xbceb8590bd78ffa7U, 0xbca71c423ce29bdaU,
  0xbe36ee54bd6bb73dU, 0xbd226ab03d88cf4fU, 0x3da3f4ae3dcff1b8U, 0xbdc4d825be0d46a0U,
  0xbcfbefd6be0f605eU, 0xbdc4ff243e0acf7fU, 0x3e02c8f7bdf3b5eeU, 0xbe1867623ddfd788U,
  0x3d6e5ef63c2efd99U, 0xbe056764bd9a8133U, 0xbccb899bbe1b79edU, 0xbdb1b1973e030600U,
  0xbdc44e3f3dee2477U, 0x38c203a8be1af6b7U, 0xbdc24982bdc9eb4cU, 0xbce63c053d89d144U,
  0xbdb9e7b83d15ac98U, 0xbcde2cb63d81c90fU, 0xbe2a527f3e166ce2U, 0xbe0e1b0abe46963eU,
  0xbdc18e943e3e2fe1U, 0x3dffb4c6be2a1569U, 0xbd8cb09fbe055233U, 0xbe26207fbd9a48adU,
  0x3df6cd143e02a65fU, 0xbde86c38bdc670baU, 0x38321b1cbac1d11eU, 0xbb343e943a823828U,
  0xbdba6d773d41c1e9U, 0xbd39e7d03d8698ccU, 0xbe036e6abe0ce908U, 0x3e0629613d51a228U,
  0x3d667f14be28ad68U, 0xbd81ee8b3d6cbfb2U, 0x3dee1b603e087ca1U, 0xbdfa0881bdbf7ee2U,
  0xbe249e3abcb5b737U, 0xbe21e579bd1934a4U, 0xbde31376bccc9529U, 0xbe2978223d12b641U,
  0xbb4959a0bbd9e50bU, 0x3b8b93f9bb470a81U, 0xbbfb4c67be3d4e4fU, 0x3d68e9a13df8bf1eU,
  0xbe100834be0a0b0cU, 0x3dbd59013dc38a63U, 0xbddebb683e0ef2a1U, 0x3d958e45be15757bU,
  0xbe1182033d85ac48U, 0x3deffb60bd0b850eU, 0xbd07ef88be33e105U, 0xbe0509913e117276U,
  0x3d92076bbe6ddf99U, 0xbdd50adb3d808465U, 0xbe47f8493d913d77U, 0xbe72821fbd5c6a02U,
  0x3de48b7b3bf2575eU, 0xbdce3618be0d2268U, 0x3d9cd6c1be31c3dcU, 0xbde3c7203d79e81cU,
  0x3e1d3f56bca61bb8U, 0xbe0a2e013d647410U, 0x3bf62ac0bb384521U, 0xbd411217bc01b6d3U,
  0xbc7cf6abbdc6f3efU, 0x3d1e03883de345b1U, 0xbd78a5953cf8a3acU, 0xbe35d9353d09a5feU,
  0xbddbbe06bc636465U, 0x3d512c98bd19c3b5U, 0x3c43d999be1eed3eU, 0xbdea5f7a3e0f9c69U,
  0x3c42d109bdbf82baU, 0x3d499854bc9fe343U, 0xbeb4f18a3c8d0243U, 0x3e1d37efbe1556ecU,
  0xbb4ec4febe72de0dU, 0xbe13fbbf3e455f53U, 0xbc208391be5f1053U, 0xbdb0ec703e263df4U,
  0xbacad2e13da8194fU, 0xbe64816fbdf1330eU, 0xbc136c763caec1c2U, 0xbcf06b58bd231a2eU,
  0x3e42b7233c96e39dU, 0xbe2402a0bba77354U, 0xbe2fe0423c5ef8dbU, 0xbe0b6cc5bd0243acU,
  0xba30ee583aae5109U, 0x3ad325c0b9d94e33U, 0x3da0ba95bcd42354U, 0xbdbe49fdbe3de188U,
  0x3b4e3ed5bd974ea8U, 0xbe3c82ffbd991eb7U, 0xbe1b00993dac5bb2U, 0x3e1fb7b6bd5f9de5U,
  0x3ca7f980bd9558a0U, 0x3db570b0bd42c845U, 0xbe4e4217bd69fa40U, 0xbda03aaabb21f818U,
  0x3d1fa912be2a88c4U, 0x3cd06be23e2531eeU, 0xbbc278553de39939U, 0xbd8b9297be23cc8eU,
  0xbd84758fbd50297eU, 0xbca2f26abce191b6U, 0x3d247a5e3de86371U, 0xbd0b8635be59aa42U,
  0x3b1f0c453e106e71U, 0xbd21ccbdbe24a236U, 0xba78e553baa80643U, 0xbae74f443ac8ee5aU,
  0x3d2486283e0936b3U, 0xbd32c2ebbe55ad5fU, 0xbb517ac9ba4f3d0bU, 0x39843534bb08080cU,
  0xbe1fbd583e129e30U, 0xbd8cce59be213adcU, 0x3e091edb3db59274U, 0xbdb14c49bd089754U,
  0xbd5659613d2963abU, 0xbd6c8d3abe5a41f2U, 0x3d0de2f93cb1301fU, 0xbc03bf44baa7f900U,
  0xbca71846be0fc25cU, 0x3d1d8ef43ddedd91U, 0xbe8395043d020563U, 0x3cefb970bcb72ba8U,
  0x3d09a191bd1c24c8U, 0xbd9867e33b945c4dU, 0x3e136a64bceef5b8U, 0xbe1e43183da7c385U,
  0x3ab60cebbb2b6983U, 0xb9b37e5bbb1b9501U, 0xbe0c46fabd15afdcU, 0xbe1681413d0df1c6U,
  0xbdbf8790bdf33329U, 0x3d6521d83d639d63U, 0x3de989bfbe25e0e6U, 0xbd99e8a63e259273U,
  0xbdf7716f3de326aeU, 0x3e0c1101bdedfa77U, 0xbc32d3bfbe5b8930U, 0xbde9e8693e240750U,
  0x3dbf5843bd21500bU, 0x3bddb28cbe26a73cU, 0xbd96f434be27c3a3U, 0x3dccc3363e3b6887U,
  0xbe227e4d3c5a91e5U, 0x3e17b2f5bd10c6c3U, 0xbddc811dbd9698dbU, 0xbe142899bdae6f4fU,
  0xbbab2bda3b2ef0daU, 0x3bbc54193b011f88U, 0xbdb42313bcb34c64U, 0xbca57ecdbbc9e825U,
  0xbd9eb14b3d8016ceU, 0xbe390bb23ca643baU, 0xbe077c33be039983U, 0x3d8f36dc3d9bbc09U,
  0x3dd440423e378f30U, 0xbdabe015be0c5ac5U, 0xbdcdde933daf57b2U, 0xbe32320ebdf5658fU,
  0xbb314692bb8b56fdU, 0x3a08f4ed3b26677dU, 0xbcd82ee5bbf78a6aU, 0xbc465257bd484470U,
  0x3e25bf3abd9511e4U, 0xbe271afa3db3f2cdU, 0xbe21858abe3748a1U, 0x3d8f3a633da917a7U,
  0xbd3a363cbd00fbe2U, 0xbe1f9febbe283033U, 0xbe11857b3e04a69aU, 0xbe1bf51cbe17fb45U,
  0xbe09bb42bd8dc33fU, 0xbce333cbbdf37992U, 0xbd5267ec3dcfeb9dU, 0xbd30bcecbe4e59abU,
  0xbdb2cb68bd59c092U, 0xbd950ae0be052214U, 0xbe0b578d3e0cba3cU, 0xbdf456cfbe1e8bd2U,
  0xbe2814a1be278aa7U, 0x3e30bf513d6e6278U, 0xbcb3f0c6bccd45a1U, 0xbca770c3bcc53f77U,
  0x3b3ce033bb26450bU, 0xbabebe703b241ee4U, 0xbc127926bda1afdfU, 0xbccd8e833d30177fU,
  0xbe9aa737bef72617U, 0x3eb2c203bf61ddf3U, 0xbf2b59b1bf29d639U, 0xbeee9c35bf30b443U,
  0x3e9a8802bca94a6aU, 0xbf09897bbf1433e9U, 0x3e0837e6bf848071U, 0xbe862d28bede2a27U,
  0xbe1bc354bf5ff1d8U, 0xbe70e33c3e45857fU, 0xbea45202be8ba5d3U, 0xbe71ad8abdc0b103U,
  0xbf09ac5bbf23bc03U, 0xbefdcc78bef88354U, 0xbf290fefbf3c1addU, 0x3eb579b7bed65904U,
  0xbf2ccb09bf07137dU, 0xbf25dfeebf32afe3U, 0xbf2f6c01bf284ff5U, 0xbf135e57bf3f8572U,
  0xbed781e4bf3cb543U, 0x3e7bdf3dbe90ca1fU, 0xbe2b090bbf02eb3eU, 0xbeffa7acbf1c96bdU,
  0xbf0487a6bf3294c0U, 0xbf80ccdfbf73b553U, 0xbf596468bea6870bU, 0xbf246992bf7903f2U,
  0xbf0ac44dbf0cc16fU, 0x3bc61bb2bf25f9ebU, 0xbf2c201ebf1dc0feU, 0xbe888a34bf34912cU,
  0x3d59fc34bf5c4290U, 0xbf152892bf3f784bU, 0xbef73d3dbf53cc6bU, 0xbeb2058dbe854675U,
  0xbee44392bd76bb1bU, 0xbf811d3ebeab5e55U, 0xbe90eababd8f221dU, 0xbf0719c5be07937dU,
  0x3deb6a9fbea46c75U, 0xbf230af5bf3a9ef6U, 0xbf2c437ebe4ba83fU, 0xbdbb031dbf223d4fU,
  0xbe79b250bf31d6f4U, 0xbf345ec1bf1fbd9eU, 0x3e92f152be9df770U, 0xbf54d3bebf61f51dU,
  0xbf420aebbf2290cdU, 0xbf753807be235a9dU, 0xbec64673bf543b6dU, 0xbe8ce43ebeb5d920U,
  0xbe9c2f80beba60edU, 0x3ed47cffbedeacafU, 0xbf28996fbe9992feU, 0xbf62954c3d640f8dU,
  0x3d29e87abeed323eU, 0xbe69569dbe53def6U, 0xbf6da9babf2b034eU, 0xbe7f7f5abdc7dfdeU,
  0xbf20d7a73f58e6b6U, 0xbf179e913f5b2494U, 0xbe06dfa8bee31eb8U, 0xbf18fb85be7b3475U,
  0xbf203843bf4bfe70U, 0xbecfbe30bf00b73dU, 0xbe59ce01be9dee0cU, 0xbce2a08abdebb372U,
  0x3d9230db3c1975d6U, 0x3e70b01b3e1b07e9U, 0x3ed2eff83ea4aa81U, 0x3f2c283c3f053e81U,
  0x8878888788877878U, 0x7788888787887878U, 0x8778888788787787U, 0x7787877787878877U,
  0x8887877788778787U, 0x7887788888778787U, 0x7777888888877877U, 0x7777777877888877U,
  0x8878777788888788U, 0x8888878778777888U, 0x7877888887887788U, 0x7778788877877888U,
  0x8778777777877878U, 0x8887788778777777U, 0x8787888777778878U, 0x7777877888788778U,
  0x8878887788888878U, 0x7788788777778778U, 0x8777887788878787U, 0x8787777778787788U,
  0x8878888878787888U, 0x7887878777878777U, 0x8888878888888787U, 0x8778878877788788U,
  0x8878887888887777U, 0x8887788878877888U, 0x8777877777877788U, 0x8878887887887887U,
  0x8888778788888787U, 0x8887887787788887U, 0x7887788788887888U, 0x7777878878778778U,
  0x7787778888877777U, 0x7877787788877777U, 0x8878787888878787U, 0x8887777787888887U,
  0x7888788788887887U, 0x8787787887877788U, 0x7888788788878788U, 0x7888777878887777U,
  0x7778787778788778U, 0x8778778787788888U, 0x7788778887778887U, 0x7878788888787888U,
  0x8878787878788877U, 0x8778888777778778U, 0x8787888778778878U, 0x7788777778787877U,
  0x7877887878878887U, 0x8878787887787877U, 0x7888878777878777U, 0x8777878778878888U,
  0x8787887888888887U, 0x7887778777877778U, 0x8787888878878777U, 0x8778887887888788U,
  0x8777887788778778U, 0x8778887878887888U, 0x8778877777878777U, 0x8788888787888887U,
  0x8777887888788878U, 0x8787787778877888U, 0x8787788878778787U, 0x8777788877887787U,
  0x8877778877887778U, 0x8877878788778888U, 0x7887888878888888U, 0x8877787888887888U,
  0x8788888787787878U, 0x7777887877788778U, 0x7787878877778777U, 0x7888878788877787U,
  0x7788878778877877U, 0x8787877878788788U, 0x7778878888888877U, 0x7887888877788778U,
  0x8887877788888888U, 0x8887788778888887U, 0x8877887787887887U, 0x8777778788788777U,
  0x8888878887778888U, 0x7788888887878877U, 0x8787888887887788U, 0x7777887878877777U,
  0x8878778888788878U, 0x7787778887887887U, 0x8878888878777878U, 0x7887887788878788U,
  0x8788878877778878U, 0x7787887878778888U, 0x8888788787787787U, 0x7778788888887878U,
  0x7887887878888888U, 0x8787887777787878U, 0x8887888788888778U, 0x7787788787878878U,
  0x7788777778878877U, 0x7887788778888887U, 0x7888888787887877U, 0x8887888788778778U,
  0x8878887788777778U, 0x8777877888778887U, 0x8788788878877878U, 0x7877887887877887U,
  0x7888878778877787U, 0x8877788878778887U, 0x7887788788877788U, 0x7787778888887788U,
  0x7787877778778787U, 0x8887878877777787U, 0x7878788788778878U, 0x8788888788878787U,
  0x7888777778878877U, 0x7888888888888878U, 0x8877787777878888U, 0x7788887887877778U,
  0x8787788888778878U, 0x8887878878878778U, 0x7788788777887878U, 0x7777887878887877U,
  0x8888887887888888U, 0x8788888888788888U, 0x7787887877788778U, 0x7788787888878788U,
  0x8887788788778788U, 0x8777777788777878U, 0x7778877777887888U, 0x7887778788878778U,
  0x8888878877878778U, 0x8878888777777777U, 0x7887887778878888U, 0x8788888888887778U,
  0x8887888877778888U, 0x7877778888888887U, 0x8788887788878788U, 0x8788877788787878U,
  0x7888787788877788U, 0x8788778778778778U, 0x8878787877887788U, 0x8887878787888888U,
  0x7887788878877778U, 0x7887888877878878U, 0x7887788878878877U, 0x7787878877887777U,
  0x8877887778777877U, 0x8777777878787887U, 0x8887877887778888U, 0x7777878877777877U,
  0x7888888778877787U, 0x8778788887777788U, 0x8788788878878787U, 0x8787778778877888U,
  0x8877778888888887U, 0x7878887887878788U, 0x7777878887788778U, 0x7888778778887787U,
  0x8778888778888888U, 0x7877787778888888U, 0x8878887888778888U, 0x8787887877878877U,
  0x7787778878788778U, 0x8778878787877888U, 0x7777787787788887U, 0x8787877877887888U,
  0x8877787887887887U, 0x7777788778887877U, 0x7888887778777778U, 0x8888777888887887U,
  0x7888877788877887U, 0x8878778778778788U, 0x7877877787777887U, 0x7887777878788788U,
  0x7778878877887878U, 0x8887887778887877U, 0x8877878777778877U, 0x8887877878777888U,
  0x8878788877777787U, 0x8778777777888878U, 0x7888788877888877U, 0x8878888787788788U,
  0x7888777877787777U, 0x8787877887887777U, 0x7888777788888787U, 0x8787877787787888U,
  0x7888887778878878U, 0x7787887887787777U, 0x8788787778877878U, 0x7887777887877777U,
  0x7788787887878887U, 0x7787777787788887U, 0x7778778778788888U, 0x7778888878877887U,
  0x8877788887877878U, 0x7778878788888888U, 0x7788888877887887U, 0x7778887887887788U,
  0x8887878887888888U, 0x8877888778778878U, 0x8787787878878878U, 0x7877877888777788U,
  0x7887888888777877U, 0x8877788877787778U, 0x7788877877777778U, 0x8777787877878888U,
  0x8877887787888788U, 0x8878888787888777U, 0x8877888888787887U, 0x7788887878888788U,
  0x8888888878888888U, 0x8887878888887887U, 0x7788787887787878U, 0x7877878888787888U,
  0x8888787887777887U, 0x8787788877878777U, 0x7778788788887887U, 0x8788788887878777U,
  0x8878888888788788U, 0x8878878778888778U, 0x8788888887778787U, 0x8878887778788888U,
  0x8887888787877778U, 0x8877887778888877U, 0x8887788887788788U, 0x8888777888778877U,
  0x7887877778778888U, 0x8788887788788778U, 0x8788787778887887U, 0x8887877777888888U,
  0x7788888787788888U, 0x7887877788888888U, 0x7888777778777887U, 0x8877887788878787U,
  0x7888788787877888U, 0x8877787888887788U, 0x8788877888878887U, 0x8888888788877887U,
  0x8888877787888878U, 0x7887787777777887U, 0x8777778788887887U, 0x8887877887787788U,
  0x7777788788887878U, 0x8888887777777887U, 0x8787787888887777U, 0x8888777878777778U,
  0x7888888888778787U, 0x7788787788788778U, 0x7778887777787878U, 0x8888888778878787U,
  0x7787788877887878U, 0x7788778887777777U, 0x7878788878887778U, 0x8788878787777878U,
  0x7777787788787787U, 0x8878888887777787U, 0x8888787788777788U, 0x7788787878788877U,
  0x8878888788877787U, 0x8888777878877887U, 0x7777787878788787U, 0x7887777888788888U,
  0x8777788788787888U, 0x8778878778887888U, 0x8788787887888787U, 0x7887777878778788U,
  0x8888878888887787U, 0x8787878788887888U, 0x7887878787888778U, 0x7788877887878788U,
  0x7888778787888887U, 0x8887777887887878U, 0x7887777777888888U, 0x7877888787877888U,
  0x8887787787787887U, 0x8887888878788787U, 0x8877878777887877U, 0x8878787777778887U,
  0x8888878878888787U, 0x7777777877778788U, 0x8787887778787877U, 0x8778878888887888U,
  0x7888778877778888U, 0x7788778878787788U, 0x8877777877888788U, 0x7877878777887877U,
  0x8887888788888878U, 0x8788887877778877U, 0x7777877887888877U, 0x7888877877788787U,
  0x7778888887887878U, 0x8887788777778778U, 0x8888888777888788U, 0x8887878888787888U,
  0x7877878788787788U, 0x7887877788877878U, 0x8788788888888787U, 0x8887878787778778U,
  0x8888877887887878U, 0x8778777887778878U, 0x7877788788887878U, 0x7888878788888778U,
  0x8788787787788887U, 0x7887787888887788U, 0x7878877887777888U, 0x8777778878878878U,
  0x8888878887788788U, 0x7778788778887777U, 0x7777787788788787U, 0x7878877788778777U,
  0x8788888788787887U, 0x7777778887787878U, 0x7878877878787887U, 0x8888888878888777U,
  0x8878888888777888U, 0x8877877777777778U, 0x7887887888778787U, 0x7787787787778888U,
  0x8877778777778887U, 0x7887888888777778U, 0x8778787788788888U, 0x7777888878887887U,
  0x8778888778777777U, 0x7887788787777887U, 0x8888888888778887U, 0x8878887878878877U,
  0x8778878887887888U, 0x8878787878778877U, 0x7788778877788887U, 0x8877777888787777U,
  0x8878878878888878U, 0x8888877787877888U, 0x7888888877887888U, 0x8888788878778777U,
  0x8787788878887877U, 0x7888887888777877U, 0x7888788788788888U, 0x7787788888878787U,
  0x7877787788887878U, 0x7888788888887887U, 0x7787878887888777U, 0x8778887787777777U,
  0x7877878787787888U, 0x8788777888878888U, 0x7777787788788788U, 0x7888878788887778U,
  0x8878888888788787U, 0x8777877878787788U, 0x8788787787787778U, 0x7878778777887778U,
  0x8888788888787888U, 0x8888777878788887U, 0x8888788788888887U, 0x7788878878778878U,
  0x7788888778778888U, 0x8787878888788778U, 0x7778878887788788U, 0x8888787878888887U,
  0x8788778878778778U, 0x7887888877888888U, 0x7888778888877788U, 0x7877878878787777U,
  0x8878888877777788U, 0x7888887878877888U, 0x8878888788878788U, 0x7887777888888787U,
  0x7788887788788888U, 0x8877888787788778U, 0x8888788878888888U, 0x8877878778887788U,
  0x7788888878788878U, 0x8887877788887788U, 0x8788887787778778U, 0x8878787887778878U,
  0x8887888878787888U, 0x8787888878787878U, 0x7788887787878887U, 0x8877877788887788U,
  0x8888888888787888U, 0x7778877788878788U, 0x7878788878777878U, 0x7888778778878777U,
  0x7887878888787787U, 0x7888888777777778U, 0x7887777888778778U, 0x8887888878877787U,
  0x8878878777888888U, 0x7778788788788878U, 0x7788888878788878U, 0x7787788788888787U,
  0x7787788877888878U, 0x8887888877777887U, 0x8787878777778888U, 0x7777888878877888U,
  0x8887777878787788U, 0x7788887888888888U, 0x7778887878778878U, 0x8778777878887778U,
  0x8877778788888777U, 0x7787887787888878U, 0x8888878778788887U, 0x8877778888887877U,
  0x7778878877778878U, 0x8788778788877877U, 0x7787787888877888U, 0x7778787788888888U,
  0x8788888777787887U, 0x7887778887878888U, 0x7787787788888788U, 0x8878878778878777U,
  0x7877787777887787U, 0x8777777777778878U, 0x7787888887888888U, 0x8778778778778888U,
  0x8788877778788888U, 0x7877888877888878U, 0x8788788788878787U, 0x7877787888887777U,
  0x7878877877888778U, 0x7888788788787778U, 0x7888778888877887U, 0x7878878787778888U,
  0x8778888788788787U, 0x8787787878787878U, 0x7888878878778777U, 0x7788887787887878U,
  0x8778888788888888U, 0x8787778877878878U, 0x8877888877877788U, 0x8788877778887878U,
  0x8777878887777788U, 0x7788788888888887U, 0x7888788787788888U, 0x8887777887777777U,
  0x8888888888878888U, 0x8787778777888878U, 0x7777778788788887U, 0x7788778778888788U,
  0x7777787888787778U, 0x7777888887878788U, 0x7778887887878888U, 0x7787778877778778U,
  0x7878888877788778U, 0x8778877777878877U, 0x8877877778888888U, 0x7888887788787787U,
  0x7888878888787878U, 0x7887888777888788U, 0x8777778888887888U, 0x7788888878887788U,
  0x8888878777778787U, 0x7778878788878777U, 0x7788788878788777U, 0x8877787777878888U,
  0x8888888887788888U, 0x8777777787778888U, 0x8788788778888778U, 0x7888887778787887U,
  0x7888778777888788U, 0x8778878888788787U, 0x8888877878887878U, 0x8877888787777888U,
  0x7888877888887887U, 0x8777878788788887U, 0x8877887888888877U, 0x7788877888787888U,
  0x8878788788777888U, 0x8887788888787787U, 0x7888877877887878U, 0x7778878778787778U,
  0x7788777787778878U, 0x7887888878877887U, 0x8777877888778887U, 0x8788778777778878U,
  0x8788778788787788U, 0x8778777788887877U, 0x7788777777888787U, 0x8887788778887777U,
  0x8777778778788787U, 0x7777887878878777U, 0x8888887877778777U, 0x7877878887877887U,
  0x7787778787888788U, 0x8787787778878787U, 0x7777887787787787U, 0x7878878788788878U,
  0x7888888887888888U, 0x7878777787788888U, 0x8787888787788777U, 0x7778887777878777U,
  0x8878778878788888U, 0x7889877778787877U, 0x8787888877787778U, 0x7778877778877887U,
  0x8877878878888777U, 0x7777787888787877U, 0x8888878877887878U, 0x8887778888787778U,
  0x8878888788887788U, 0x8778878888887788U, 0x8787778877787887U, 0x7878888778788888U,
  0x8878778877787888U, 0x8877778888877877U, 0x7888878888888788U, 0x7888788888878787U,
  0x8878878878888888U, 0x7778878778888788U, 0x7887788888888887U, 0x8777787788877887U,
  0x7778877778887878U, 0x7777887787878887U, 0x7788787778777787U, 0x8888888888888787U,
  0x7877887888888778U, 0x7788887888788887U, 0x8887778778878888U, 0x7787887888778787U,
  0x7887888887787887U, 0x8787878888887878U, 0x7778877887877788U, 0x7777777877787788U,
  0x7787877778777877U, 0x8777878788778888U, 0x8878878887878778U, 0x8787888887888777U,
  0x7888787778878888U, 0x8787778887878878U, 0x7878777787887788U, 0x7778887778778877U,
  0x7777887888788888U, 0x7788777877777888U, 0x7887888778888888U, 0x7787877888887878U,
  0x7778778888877788U, 0x7877887887877787U, 0x7777778788788888U, 0x8778787777878887U,
  0x8777888887778888U, 0x8777878887787888U, 0x8877877877788788U, 0x7888888877778788U,
  0x7787778777888777U, 0x7777888888788878U, 0x7888888778878888U, 0x7787878778878788U,
  0x8777787887777778U, 0x7787787778888888U, 0x7877877888887887U, 0x8788778878778778U,
  0x8788788887788777U, 0x8778877877877878U, 0x8888788788878777U, 0x8877788877788887U,
  0x8778887778777788U, 0x8778878888787788U, 0x8888787878878788U, 0x7878777887887888U,
  0x8887787878887888U, 0x8777777788788777U, 0x8878878788878788U, 0x8788888887888888U,
  0x8888888887888778U, 0x8788788787787877U, 0x7877888888777887U, 0x7778878788887788U,
  0x7788787788888888U, 0x8787887887788788U, 0x7788788877878777U, 0x8878778788888787U,
  0x7787877878778888U, 0x8777777877888788U, 0x8877887787878888U, 0x8787888888887788U,
  0x8878787887787787U, 0x7788888777788787U, 0x7878787888887878U, 0x7887787788787877U,
  0x8788877888788788U, 0x8788787787878778U, 0x8788788778888887U, 0x7777788887778787U,
  0x8877778788787788U, 0x8887788878778778U, 0x8888888778888878U, 0x8778788888878878U,
  0x7887888888888778U, 0x8788777787788888U, 0x8887888878888787U, 0x7888878887887777U,
  0x7777787877878788U, 0x8888878888877887U, 0x8888788888888788U, 0x7887878788887787U,
  0x7787888888887888U, 0x7787778887777888U, 0x8887887778877787U, 0x7787788888887887U,
  0x8787878878788878U, 0x8887878878887878U, 0x7787778778778878U, 0x8887887778788887U,
  0x7788888888887788U, 0x7877878878887877U, 0x8787887777878787U, 0x8788878777787778U,
  0x8787888787787878U, 0x8878878888888778U, 0x8788878888788787U, 0x8887788878888888U,
  0x7788878888788888U, 0x7778878887878878U, 0x7777788878878788U, 0x7777877877878878U,
  0x8888788887888888U, 0x8888877788878888U, 0x8788777778887787U, 0x8777887788887788U,
  0x7888878877787878U, 0x7777887777788878U, 0x8777778787887888U, 0x8777787877887888U,
  0x8778788878788888U, 0x8887888788787888U, 0x8877788887877787U, 0x8877787878878878U,
  0x7788888778878887U, 0x8788878788888787U, 0x7778788888878787U, 0x8777787878778888U,
  0x7878777877787777U, 0x8877778778788887U, 0x8777888778887888U, 0x7788878878888888U,
  0x8888787878878778U, 0x8777878887888888U, 0x7878787878787787U, 0x8878788888787887U,
  0x8778888788788778U, 0x8888787778788788U, 0x8788877878878787U, 0x7877887888887777U,
  0x7887878887888878U, 0x7778777888888888U, 0x8787888888888888U, 0x8788887877878888U,
  0x7778877878877878U, 0x8878787878777777U, 0x8888888777887878U, 0x7877778788878887U,
  0x8788777877777778U, 0x7787888878778787U, 0x7888778787778888U, 0x7787787787777788U,
  0x8778887888877787U, 0x7778777887787788U, 0x7787787877788888U, 0x7778787888887787U,
  0x7877877887787878U, 0x7888778787878778U, 0x8888777787878877U, 0x7788778878877888U,
  0x8887878777777788U, 0x8787777887788777U, 0x8788877787878788U, 0x7877887778787888U,
  0x7887778878788778U, 0x7778788877887887U, 0x8888887787777788U, 0x8878787878788788U,
  0x8877878787778888U, 0x8887788777887778U, 0x8778877888787888U, 0x8787888877887788U,
  0x7888878888788887U, 0x7777878888888787U, 0x7888788877888778U, 0x8878878878778787U,
  0x8878888788787887U, 0x7877788787887877U, 0x7878888878877788U, 0x7778877887887887U,
  0x7888888888888878U, 0x7788878787777878U, 0x7878878888787787U, 0x7877888778878878U,
  0x7877788778888878U, 0x8887878878777887U, 0x7887778887778877U, 0x8877777778787888U,
  0x8888888777787888U, 0x7777878887888777U, 0x8888787777888787U, 0x8878878888787887U,
  0x8778887887887888U, 0x8887778778887788U, 0x8877788888787888U, 0x8787877887777888U,
  0x8888787888778878U, 0x7788887788788878U, 0x8887878877887888U, 0x8778778787778888U,
  0x7888788887877788U, 0x7788877877777877U, 0x8877888888877877U, 0x7888788777887888U,
  0x8877777777777777U, 0x7877877787877778U, 0x7878777777787787U, 0x7877787777778777U,
  0x7877787877778787U, 0x7888777878778788U, 0x7788878877778887U, 0x7777877887778877U,
  0x7877987788887778U, 0x8888888977788888U, 0x7778877777877878U, 0x7778778788887887U,
  0x8788787888788887U, 0x7889877887778787U, 0x9888787788877788U, 0x7777787878778777U,
  0x8888787887877878U, 0x7778777787888877U, 0x7778877888777887U, 0x8787877788877888U,
  0x7787877887788887U, 0x7887878888787878U, 0x9788887787887877U, 0x8878878888887788U,
  0x7888777877888888U, 0x7778878888878777U, 0x7777777878877777U, 0x7877877877777877U,
  0x8788787788888876U, 0x7888788778887888U, 0x7878787778878787U, 0x8778888787777777U,
  0x8887877878788887U, 0x7787787777878788U, 0x7788787787877888U, 0x7778887888888887U,
  0x8778777888888777U, 0x8787878888878888U, 0x7877777777778778U, 0x8877887787787777U,
  0x7788777887777877U, 0x8788777887777877U, 0x8778777887777887U, 0x7878887787878787U,
  0x7788887878787787U, 0x8888877877887887U, 0x8777887777878878U, 0x8787887777877768U,
  0x7878877788878877U, 0x8887777887778778U, 0x7777787778887777U, 0x7788897877777787U,
  0x8878787777887787U, 0x8887787878787788U, 0x8787777778778777U, 0x8777878888888878U,
  0x7877777877888888U, 0x7788787778787777U, 0x8788787787887788U, 0x7877777887877878U,
  0x7788788787787787U, 0x7788778778787777U, 0x8888777778877887U, 0x8878778887878788U,
  0x8788777777877887U, 0x8888788777887877U, 0x7877787788887877U, 0x7777787788787777U,
  0x7787777888877788U, 0x8887777887778787U, 0x7887877778778878U, 0x8787888878888867U,
  0x8887777877888888U, 0x8787787778788878U, 0x7887787778788788U, 0x7877878888878778U,
  0x8777787788778877U, 0x7777878888887878U, 0x7778887888788777U, 0x8778787778888777U,
  0x8887777778887887U, 0x7878787878787878U, 0x7788887788787887U, 0x7788787877777777U,
  0x8787778878777777U, 0x7887887778787877U, 0x7877878778778778U, 0x7878878887878888U,
  0x8778777787878877U, 0x8788887888888888U, 0x8777787878887888U, 0x7878787888778887U,
  0x7777778887787877U, 0x8887877778877878U, 0x7877778778777877U, 0x8877787778788777U,
  0x8888778777788778U, 0x7777787777888888U, 0x7878787777877787U, 0x7778777877878778U,
  0x8777787877888879U, 0x7877777877877877U, 0x7787787777878888U, 0x7878877878778877U,
  0x7777787787888878U, 0x7877777788778878U, 0x7767777788778777U, 0x7878887787878887U,
  0x7787777877887677U, 0x7887887778787777U, 0x7788688777878787U, 0x7778888877888877U,
  0x7787777778788887U, 0x8878788787778878U, 0x7878777778777788U, 0x7778777887888788U,
  0x8777787787777887U, 0x7887778877777777U, 0x7888887777777887U, 0x8787877787778888U,
  0x8878878887777777U, 0x8787777978888887U, 0x7777777888788888U, 0x7878877888888878U,
  0x7778877878788787U, 0x8777888878777888U, 0x8777878788777778U, 0x8778877788878878U,
  0x7778778788878888U, 0x7887777878888887U, 0x7777787778778777U, 0x8777878878778787U,
  0x7788778777777787U, 0x8878777887777878U, 0x7877777788777878U, 0x7888877877887887U,
  0x7888778877877887U, 0x7788788778788888U, 0x7778887888877888U, 0x7788878888778787U,
  0x8788777888788777U, 0x8787777788877877U, 0x7777887778877777U, 0x8777889888877777U,
  0x8878787777788788U, 0x7887778788878877U, 0x7877887888778787U, 0x7877777787877787U,
  0x8778787887888887U, 0x8787779788788787U, 0x7877887777878887U, 0x7787879888788877U,
  0x8877777789788787U, 0x7778787778777777U, 0x7887787887778787U, 0x7888877777787887U,
  0x7878787878888887U, 0x7888878888787888U, 0x7787787878777788U, 0x8787888887877877U,
  0x7778777878778777U, 0x7787778787787787U, 0x7878887778777887U, 0x7888788887877878U,
  0x8788777787787777U, 0x7777778877877787U, 0x7778877778887787U, 0x7777887787787788U,
  0x7778779777888788U, 0x8788977887878788U, 0x7777788887888787U, 0x7878877788777887U,
  0x7789788777888877U, 0x7788888878788877U, 0x7888887778878878U, 0x8878777887878768U,
  0x8877878878887787U, 0x6877887777777887U, 0x7777788777778777U, 0x7877787887778877U,
  0x8787987878877877U, 0x7877887877877887U, 0x7787787777877787U, 0x8878878777777877U,
  0x7787777887777777U, 0x7777887778887888U, 0x7777787878877888U, 0x7778887778878887U,
  0x8787787887787888U, 0x8877887887887787U, 0x7878787777877877U, 0x8878877778788878U,
  0x8888777777778888U, 0x8788787888887888U, 0x7878777778887777U, 0x7877778888877787U,
  0x7888777878877777U, 0x8887778888787777U, 0x7877787877777887U, 0x7787787878777777U,
  0x8888777778877777U, 0x6778877788878777U, 0x7788677878888788U, 0x8877887788777877U,
  0x8877787878887787U, 0x7888877777887888U, 0x7888778788878887U, 0x7788878888777788U,
  0x8887778777877777U, 0x8878777778887778U, 0x7788787788888878U, 0x7788897777878888U,
  0x8788888787787788U, 0x7887877887887788U, 0x7877778778877877U, 0x7778887777877777U,
  0x7778877878878888U, 0x7877787787788878U, 0x7788778788888877U, 0x7877787777778777U,
  0x8787887878787887U, 0x7777878788787888U, 0x7778887777778778U, 0x8888787888878778U,
  0x8878778887888788U, 0x7988887787788877U, 0x8777877887887887U, 0x7787777787778887U,
  0x8787788778878789U, 0x7888878888887778U, 0x8787789787777788U, 0x8878788888887887U,
  0x8777777777778877U, 0x7878778787887788U, 0x7878777888878887U, 0x7777798778778777U,
  0x8787787788788887U, 0x7887877777877887U, 0x7888877778887888U, 0x7878778887878877U,
  0x7878777777877888U, 0x7788786877788888U, 0x7778777888777788U, 0x7877777888867768U,
  0x8787787788887887U, 0x7877777888787877U, 0x7888788777778877U, 0x8877888888787878U,
  0x8877878887878777U, 0x7788787887788887U, 0x8878988778888788U, 0x8787878888787877U,
  0x7788778878788779U, 0x8787888778777878U, 0x8888778788888778U, 0x8878887887787878U,
  0x7777879779878778U, 0x7878887988777787U, 0x7788777888888778U, 0x8788877877777787U,
  0x8788888777887779U, 0x7877888887888777U, 0x8778778787878777U, 0x8887888888788787U,
  0x8887777777887777U, 0x7778777787777888U, 0x7778677788888787U, 0x7777877888878887U,
  0x7777788778788887U, 0x7787777877778877U, 0x7877887777877777U, 0x7787788787787878U,
  0x7788977877788778U, 0x7788777778888787U, 0x7777788778877788U, 0x7778777787778777U,
  0x8787888788778887U, 0x7878778878878777U, 0x7887787777777777U, 0x8887777877788877U,
  0x7877778887887777U, 0x7887887888777877U, 0x9788787878877877U, 0x8887887878877887U,
  0x8788778877778777U, 0x7887778787787877U, 0x6877777778778787U, 0x7887788777787788U,
  0x8888787888777788U, 0x7887787778787878U, 0x7888787778888787U, 0x8878877888778877U,
  0x8878888788887887U, 0x7887778788888777U, 0x7777787787787888U, 0x8878888887877887U,
  0x8888777887878878U, 0x7777777888788788U, 0x7787888777887877U, 0x8787887877878778U,
  0x7887877888787877U, 0x8777777877877877U, 0x7788787777877777U, 0x8877778788888788U,
  0x8887777888888778U, 0x7778877787788888U, 0x9887787878887887U, 0x8877788788878887U,
  0x8778887787787887U, 0x7887777878877778U, 0x7888787778778787U, 0x8887778778788878U,
  0x8778777787787887U, 0x7787788787888788U, 0x7887777777887878U, 0x7887777887878777U,
  0x8777778788887777U, 0x8778777888887878U, 0x7887887878778877U, 0x7897788888888787U,
  0x8888777867788787U, 0x7777787777888878U, 0x7877777778787777U, 0x7777777777778777U,
  0x8787787777888887U, 0x8887777778777778U, 0x7778887778878776U, 0x8897778787788777U,
  0x8788777778777787U, 0x7787778788877888U, 0x7778887788888788U, 0x8887887887878877U,
  0x8787787788778877U, 0x8877877788787877U, 0x7787877788777887U, 0x8777787778888777U,
  0x8877779878878777U, 0x7788877888888787U, 0x9687789778878877U, 0x8888877887888788U,
  0x8777987778877888U, 0x7887777887877778U, 0x8877687778778888U, 0x8777787888878788U,
  0x7888788877778877U, 0x6878987777888887U, 0x7777777888788887U, 0x7777787788878787U,
  0x7788787878788879U, 0x8787877778877877U, 0x9787787777777787U, 0x7777878888878778U,
  0x7877878677887767U, 0x7777877887877887U, 0x7778777977878887U, 0x7887797789877878U,
  0x7787888887787877U, 0x7788788787787767U, 0x8888777678867877U, 0x9878877777687777U,
  0x7777787878678777U, 0x7877777877877778U, 0x8678778886777887U, 0x8878877787878787U,
  0x7878977877788687U, 0x8777777878767776U, 0x7788778676787787U, 0x8777777777777867U,
  0x7777777769878777U, 0x7767778778878777U, 0x8788777787878788U, 0x8777777787878778U,
  0x8787787767687777U, 0x7778786788778768U, 0x8878776878777887U, 0x7877787778788787U,
  0x8878777777877878U, 0x8777777777877788U, 0x8778677877877777U, 0x8777787777888887U,
  0x7786886876678786U, 0x7977786778777867U, 0x7788776876877878U, 0x8867787779778878U,
  0x8778788777887779U, 0x8788777677787788U, 0x7778978998897877U, 0x7877687889788878U,
  0x8777788889778977U, 0x7788878798797977U, 0x7888876787787877U, 0x8787787878778888U,
  0x878888878797879aU, 0x7888778778897888U, 0x7887979888788888U, 0x9778999889787889U,
  0x7877978788797898U, 0x8987987797799878U, 0x8978977888897888U, 0x8897777778897888U,
  0x7677987778887776U, 0x7778776778777888U, 0x8788767897878778U, 0x8978798878778778U,
  0x7787979776778988U, 0x7877889787797877U, 0x7787776878777787U, 0x8877887778787889U,
  0x7798776777789987U, 0x8789788778878787U, 0x7788787779877777U, 0x7778777887788877U,
  0x7677687777778776U, 0x8777776787778667U, 0x6888987777887786U, 0x8788877777787877U,
  0x8898776778878877U, 0x979778a788787787U, 0x7988787788887788U, 0x7677777798788779U,
  0x7776786778888796U, 0x8877888877799977U, 0x7888976988787788U, 0x8897887777797887U,
  0x7787997888987777U, 0x7788889778877877U, 0x8887787977777877U, 0x8787777777877777U,
  0x7788877877778786U, 0x8778787777788877U, 0x6787877977888788U, 0x9778777787787787U,
  0x7787887687788778U, 0x7788878777878777U, 0x7778778777777787U, 0x7787787888788878U,
  0x7777988787877789U, 0x8788887787787778U, 0x8887877778868777U, 0x8877777879788879U,
  0x8777777787877777U, 0x7778787877888888U, 0x8778788887777877U, 0x9778787777787787U,
  0x7886987887877777U, 0x7787869787886788U, 0x6788787778787788U, 0x8777778977878788U,
  0x7777787778888877U, 0x7778877787787787U, 0x8797787987777877U, 0x8878797887878877U,
  0x7876888776887866U, 0x8877777778787777U, 0x7887676777877887U, 0x8878787879887778U,
  0x7787876779877778U, 0x8788779677777887U, 0x6968877687777767U, 0x8777768888888778U,
  0x7878776887788797U, 0x8777777787789766U, 0x7887786878877777U, 0x7897777676777887U,
  0x7776787788778777U, 0x7878789787878788U, 0x7898778777878867U, 0x9777767879878778U,
  0x7887888767778777U, 0x7778789787898677U, 0x7788777787777789U, 0x9797877777877787U,
  0x8777778787777777U, 0x7778877787878787U, 0x8678878777887787U, 0x8787778788787788U,
  0x7877787787787877U, 0x8877877798788877U, 0x7788777787778787U, 0x8767778777777877U,
  0x7778977889877778U, 0x7767787777877878U, 0x7798888787777878U, 0x8877887779877878U,
  0x7878879776877787U, 0x7787798798887877U, 0x7788788687877788U, 0x8867787777787787U,
  0x8787796879888888U, 0x7778768777878787U, 0x6898877877788778U, 0x8777777787778888U,
  0x7787887789788887U, 0x8877878877798869U, 0x7777877878768786U, 0x8778777787888797U,
  0x8777786877777898U, 0x9788888777887787U, 0x7a77787777887777U, 0x8777768978878878U,
  0x7876787899777887U, 0x8776887877779778U, 0x7778986988787887U, 0x9897877887688776U,
  0x8777897779888797U, 0x7878876878887777U, 0x7787967777787878U, 0x7778888888877779U,
  0x7877886787877878U, 0x7778798887788777U, 0x7887977888887677U, 0x8877777777898897U,
  0x7777789679877777U, 0x7777777776877878U, 0x7898897876876867U, 0x8878787777888778U,
  0x7688988877778777U, 0x7877877887889877U, 0x7788777877888789U, 0x8777787888877787U,
  0x8778888777788787U, 0x8688877887797877U, 0x8888878887787878U, 0x7877787788888887U,
  0x7778779788777777U, 0x8787898777787787U, 0x8888977887878887U, 0x8777788778787788U,
  0x8777797888878877U, 0x6888787887877777U, 0x7888778887878977U, 0x9878877888887888U,
  0x8877988777878887U, 0x8777887778877777U, 0x7777777787798889U, 0x8788777878877788U,
  0x7777776767788777U, 0x7767777688878787U, 0x7678776887787777U, 0x6777777777777877U,
  0x7787777776777777U, 0x7777777897777868U, 0x7877676677767777U, 0x8778876778787777U,
  0x8777887788877988U, 0x8878698777888777U, 0x7988777787788878U, 0x7888778778877779U,
  0x7888878878787887U, 0x7868879787878979U, 0x7777977788888777U, 0x9797888787778788U,
  0x8777897778877787U, 0x9778779877888887U, 0x7a87868789779887U, 0x9787879787888788U,
  0x7988877798777786U, 0x7978878777799867U, 0x7787a77898798878U, 0x9788787787977877U,
  0x7788877889888777U, 0x7978777877887887U, 0x88a8978787788789U, 0xa988788889877789U,
  0x8787988877877778U, 0x78788998a8897777U, 0x8788777787787878U, 0x8767786788888798U,
  0x8687778777787677U, 0x7878777778777788U, 0x8688777978777778U, 0x8777887788788778U,
  0x7877788867777877U, 0x7879877898777679U, 0x7787667867877787U, 0x8768777877778777U,
  0x8778777777787798U, 0x8888878787787777U, 0x8888877878778787U, 0x8777778888878777U,
  0x7877887878788877U, 0x8877789787788877U, 0x8888877877777878U, 0x8878777778787778U,
  0x8777877778777787U, 0x9777779777877888U, 0x8987787777867777U, 0x9777788787777789U,
  0x7876887777777787U, 0x7877998777789777U, 0x7787977a87777878U, 0x8887777777777798U,
  0x7776777678787876U, 0x8877777767777777U, 0x7687978776777777U, 0x9777778777778888U,
  0x7777877778768877U, 0x7767888898788779U, 0x7788676777777788U, 0x9787777777978897U,
  0x7787788677778877U, 0x7887777687878788U, 0x8867877778778766U, 0x6777877887878886U,
  0x7987778778778677U, 0x7777767868778778U, 0x9777777787877787U, 0x8778786777687778U,
  0x7787889789978777U, 0x9888887787887788U, 0x8698878787777987U, 0x8877877978887788U,
  0x7887978788787779U, 0x8778789788879777U, 0x8878877887787788U, 0x9877787778878789U,
  0x7777888788877777U, 0x7677787877878778U, 0x8687877887788778U, 0x7877888888888788U,
  0x7887888777777877U, 0x7878778887787877U, 0x7778777788777788U, 0x8777887769777789U,
  0x6787776767777776U, 0x8886778777767878U, 0x7988876777676767U, 0x7777787777888778U,
  0x7777777766778787U, 0x8867878878789767U, 0x6887867777787778U, 0x8777777777778787U,
  0x6777776788986677U, 0x7767678788878787U, 0x6897777787877777U, 0x8787778888888878U,
  0x7987777866778776U, 0x8778887787799876U, 0x6788767887798887U, 0x9788787666888887U,
  0x8777778778877877U, 0x8879688787887788U, 0x6898778867898778U, 0x8777789787778788U,
  0x8776777879777977U, 0x7787877878788877U, 0x6787866987888787U, 0x7887787878788887U,
  0x7788797787787777U, 0x8778687777777787U, 0x7878977887777777U, 0x7878777889778677U,
  0x8887786879778978U, 0x7778777878877778U, 0x8788977879787877U, 0x7877787887898787U,
  0x8788777787778779U, 0x7888777787878887U, 0x8878778877887987U, 0x8879887777787887U,
  0x7877887868877988U, 0x7877876878877769U, 0x8887767677887788U, 0x8867776778878788U,
  0x7777887979887777U, 0x8777788777777777U, 0x8888777877767777U, 0x8777777778788779U,
  0x8877788776778677U, 0x8777898897787867U, 0x7778877987768777U, 0x8787777777767797U,
  0x7787687778887797U, 0x8878887787887778U, 0x7887778786789777U, 0x9788777777788888U,
  0x7887888798877887U, 0x7877787777778767U, 0x6778977878877877U, 0x8777777777778788U,
  0x7776888778877786U, 0x8877787777876887U, 0x9887868876777878U, 0x7878877787787888U,
  0x7787786777787877U, 0x8777787898788777U, 0x8778977987888787U, 0x8877777768888797U,
  0x7777a87689778777U, 0x8877887777787878U, 0x8888978789779877U, 0x8788778888878888U,
  0x7778987778988877U, 0x7877789787798787U, 0x8888877987897888U, 0x9787777777787797U,
  0x7778777877777777U, 0x8778887777877887U, 0x7688778777777787U, 0x8777876777878787U,
  0x7787787766878768U, 0x7777787878797877U, 0x7688877697777787U, 0x8768777778767778U,
  0x8878887788878878U, 0x7878878777778878U, 0x8787788887887787U, 0x8788787878877887U,
  0x8887887887788887U, 0x7878887877778879U, 0x7778788787877788U, 0x8777787787887878U,
  0x8778877788878877U, 0x8778777778778878U, 0x7877788777787777U, 0x8778878788878787U,
  0x7788877778888787U, 0x7887887877778777U, 0x8878877887787888U, 0x8788788888888888U,
  0x8777778778778787U, 0x8778877788878887U, 0x7888778787887877U, 0x8877877887787878U,
  0x8777777878778888U, 0x7878777778788878U, 0x8778778877877788U, 0x8887777888788778U,
  0x8887778887878887U, 0x7877878877887778U, 0x7888877887878777U, 0x7778787878778779U,
  0x8788888888888878U, 0x7877777788877878U, 0x8888778787778878U, 0x8788877778888887U,
  0x8877878878788878U, 0x8888888878788888U, 0x8778888888888897U, 0x7878787888787878U,
  0x7787778888877887U, 0x7887788888778889U, 0x8788877877878788U, 0x7888788888878787U,
  0x7787778877878888U, 0x7788778787778877U, 0x7878877888787888U, 0x8777788778777877U,
  0x7888878888878877U, 0x7888887887877877U, 0x8887778787778778U, 0x8888788878887777U,
  0x7888788778778777U, 0x7887888778788777U, 0x8878887887877878U, 0x8788888877787788U,
  0x8887778888787788U, 0x7788787877888877U, 0x7888778878877887U, 0x8778888887877777U,
  0x8888888877788878U, 0x7778778888887877U, 0x8888878888878888U, 0x8888787888887888U,
  0x8878878888888787U, 0x7887888888888877U, 0x7877787878888788U, 0x7887878889877898U,
  0x8977888877778877U, 0x7888787787888878U, 0x8877787778787887U, 0x7887787888888778U,
  0x8887888778788877U, 0x8878787778788888U, 0x8888787888787777U, 0x7778778888788777U,
  0x8777788777888877U, 0x8878878877878777U, 0x7788777777787787U, 0x8878887877888787U,
  0x8778777788788777U, 0x8777778878778778U, 0x7777778777788878U, 0x7887778777888878U,
  0x7788778777878888U, 0x7878788788878777U, 0x7787777888887777U, 0x7778788778878878U,
  0x7887877888887777U, 0x8777887887887777U, 0x8878878788778877U, 0x7877787778778787U,
  0x8878887887878889U, 0x7878778789889888U, 0x8877788789887888U, 0x8888888787877788U,
  0x7877878878887877U, 0x7877787877888978U, 0x7789887888887788U, 0x7788878988878788U,
  0x8878778877887878U, 0x7889888887788888U, 0x7888887789888887U, 0x7888778888777887U,
  0x8888888887778888U, 0x7887888878778879U, 0x8778888888888887U, 0x7788877878888789U,
  0x8888877778878788U, 0x7788877888888888U, 0x7877878778787887U, 0x7777787788887877U,
  0x7777887887888877U, 0x8878787788877777U, 0x7787887888877888U, 0x7788788788788887U,
  0x7887887887888787U, 0x7887877888887778U, 0x7787788788778887U, 0x7788778788887877U,
  0x7787887887878788U, 0x8878787888778787U, 0x7787777888788777U, 0x7878788777787887U,
  0x8888788777887788U, 0x7878787878879887U, 0x7787787887877888U, 0x8887877787887878U,
  0x7888887788887888U, 0x7887987888788787U, 0x8878888788888787U, 0x8787888887788788U,
  0x8878777777877877U, 0x7877787888889777U, 0x7877887787788888U, 0x8877887877888787U,
  0x8788878878877887U, 0x8787878888778778U, 0x7887797777888878U, 0x7877878878888788U,
  0x7777778777877788U, 0x7787778878778877U, 0x8778788788787887U, 0x7787787787877878U,
  0x8787887877777887U, 0x7887778887878888U, 0x8777787887877788U, 0x7878778887878778U,
  0x7888888877878878U, 0x8877878788788788U, 0x7788887878887778U, 0x8877877878778788U,
  0x7877887777788788U, 0x8887788787788887U, 0x7788778788788887U, 0x7888877877877888U,
  0x8888888788788888U, 0x7877878878788877U, 0x8878788888888787U, 0x8777888877888887U,
  0x8878888887788878U, 0x8887788778878878U, 0x8787888788777888U, 0x7777888877788888U,
  0x7788788877887777U, 0x7888888877878788U, 0x8778878888777788U, 0x8778877888888887U,
  0x8877788887877787U, 0x7888777887788888U, 0x7788888778788787U, 0x7788878888777788U,
  0x8887888787777787U, 0x8788878878878788U, 0x8877787777787788U, 0x7877877887878887U,
  0x8788787778788788U, 0x7878788777877888U, 0x7777787878878787U, 0x8788877888888778U,
  0x8787788888878877U, 0x8877888878877777U, 0x7887877888887777U, 0x8887777888788889U,
  0x8788787878887878U, 0x7888887777778788U, 0x8787787888877777U, 0x8788787887878788U,
  0x8778888877888877U, 0x7778787787888787U, 0x7778788788887788U, 0x7878787778878788U,
  0x8787788887777878U, 0x7787887778887787U, 0x8788887888887788U, 0x8877888878778778U,
  0x8787778778778878U, 0x8777877877888787U, 0x7878788878877778U, 0x7778887777778787U,
  0x8788878888877888U, 0x7788778878778877U, 0x7778788878878888U, 0x7787777878888778U,
  0x8878877788878778U, 0x8787778788777788U, 0x7877888887888788U, 0x7887777888787778U,
  0x8887887887788887U, 0x7778878778787888U, 0x7888877878787878U, 0x8888887777787778U,
  0x7888888888788878U, 0x8787777877887787U, 0x7877787888888877U, 0x8787888887888888U,
  0x7788778787788878U, 0x8887778788787877U, 0x8888778888877778U, 0x8777788887788788U,
  0x8888878888778877U, 0x8778778878899788U, 0x8988787888788798U, 0x8878888988878788U,
  0x7887788878787877U, 0x7888879778787878U, 0x7878787878788877U, 0x8888888888777787U,
  0x8887887878888787U, 0x8787778877887788U, 0x8788778878887787U, 0x8878887877878787U,
  0x7887878888788887U, 0x7887777877788888U, 0x8888878878877778U, 0x7878877788777887U,
  0x8777777878778878U, 0x8888778788888888U, 0x8887888777887778U, 0x7878788888877777U,
  0x7887778788787778U, 0x7787887878887888U, 0x7777887878888878U, 0x7878787777878778U,
  0x7877788877787787U, 0x7887787878777778U, 0x8777777887888777U, 0x8777877878778888U,
  0x7888778778777878U, 0x8877778777877877U, 0x8877877877878878U, 0x8788888888888888U,
  0x7788788878888878U, 0x8888778887777788U, 0x7877877788878777U, 0x7877788888878787U,
  0x8888787888877887U, 0x8878777788887877U, 0x7877887878878777U, 0x8888877788777877U,
  0x8887777887888778U, 0x7878888777888877U, 0x7888777778778877U, 0x7777878788878878U,
  0x7788887777887788U, 0x7777777778878778U, 0x8877888788777878U, 0x7787777887888887U,
  0x7887887887777777U, 0x7877878877778777U, 0x7878887778877787U, 0x7878788887887877U,
  0x7788778877878787U, 0x7778777878877878U, 0x8878878777788778U, 0x7878877877778877U,
  0x8787778887887888U, 0x7787778878877788U, 0x7778887878887788U, 0x8877888887787788U,
  0x8888877878777788U, 0x8888888787787878U, 0x8878788778778878U, 0x7788788877878887U,
  0x8787788788988788U, 0x7888788878889788U, 0x8878888888887888U, 0x8878877778778777U,
  0x8887777888887788U, 0x7887888778788878U, 0x8788778878878877U, 0x7887877787887878U,
  0x9787787877877887U, 0x8877778878788787U, 0x8878777788888777U, 0x7778888887778778U,
  0x8777878888788978U, 0x8888878778888788U, 0x8888878778888788U, 0x7777888887887777U,
  0x7788878878778778U, 0x7778888878878878U, 0x8877788778777877U, 0x7778787787878888U,
  0x8877778787777788U, 0x8888788787788778U, 0x7887878787877787U, 0x8888887787777888U,
  0x7788878878788778U, 0x7788787888888878U, 0x7787887787878887U, 0x8877778778877888U,
  0x8878878887888787U, 0x8787888888877888U, 0x7878887778787887U, 0x7788888778877887U,
  0x8888788887788778U, 0x8877888787788887U, 0x8878788878887788U, 0x7777888777788788U,
  0x8788877787887787U, 0x7888787878888787U, 0x8788787888788787U, 0x7888887888888878U,
  0x7878788787777788U, 0x7788878877777887U, 0x8877878878877887U, 0x7777788877887777U,
  0x7778888887877887U, 0x8777878888887887U, 0x7787777888878877U, 0x8778888777778778U,
  0x8787878888788787U, 0x8888878887788888U, 0x7788778787877777U, 0x7887787887787878U,
  0x8777878788777788U, 0x7877788778888788U, 0x7877887788887878U, 0x7888787788788788U,
  0x8878787888777788U, 0x8888787787777788U, 0x8888888888787887U, 0x7887788888888877U,
  0x8777778888788787U, 0x7887788888788877U, 0x7777788788777887U, 0x8787787788888788U,
  0x8878877878787888U, 0x7888887788888887U, 0x7878887878878887U, 0x7788777788888887U,
  0x8878788778778888U, 0x8888787777878888U, 0x7888887878888877U, 0x8787778878887878U,
  0x8887778787788878U, 0x8788778788788788U, 0x8778888777777877U, 0x7778888888787887U,
  0x8878878878878887U, 0x7888888787777878U, 0x8788777777787778U, 0x8787887788888888U,
  0x8787888887887877U, 0x8888788878888887U, 0x8778788787888788U, 0x8888788777887888U,
  0x7778877888888788U, 0x8777778877887777U, 0x7777888788887888U, 0x8887878878777888U,
  0x7887787887888887U, 0x8787777878777787U, 0x8788877877787778U, 0x8888877887888888U,
  0x8878878877778877U, 0x7888888778778877U, 0x8878878888878787U, 0x7787777787777877U,
  0x7787787788877888U, 0x8888878788888887U, 0x8778878887888888U, 0x7788787888788778U,
  0x8788887787887888U, 0x7877778788878887U, 0x8878788888878878U, 0x8888778887778888U,
  0x7778778778777888U, 0x7877887877778888U, 0x7878887887778887U, 0x7878877787878888U,
  0x7788778887787788U, 0x8877778777777888U, 0x7887778887888787U, 0x8777887888887888U,
  0x7878887878888787U, 0x8887888887787887U, 0x8888877878778887U, 0x7788788888778777U,
  0x7878787887878888U, 0x7787788887788888U, 0x8778888878878777U, 0x7887877888887887U,
  0x8787778788787878U, 0x8877788787787887U, 0x8788788888777888U, 0x8777777787788788U,
  0x7778888877778878U, 0x7887888877877877U, 0x8777878887877878U, 0x8877878777788788U,
  0x8887877787878788U, 0x7887877777887787U, 0x7777778878888787U, 0x8878888878887878U,
  0x7887788778787787U, 0x7888878778887878U, 0x8877787887778777U, 0x7778777788878887U,
  0x7887888788778788U, 0x8888887888877887U, 0x8888878887877778U, 0x8888878888887887U,
  0x7887788887787887U, 0x7878788788878878U, 0x8788877878788878U, 0x7778878888888778U,
  0x7778788778888787U, 0x8878788887788888U, 0x7887787877887778U, 0x8888888887887888U,
  0x7888788787887787U, 0x8878877788877888U, 0x8788778888878878U, 0x8878877877778887U,
  0x8888787878878878U, 0x8878877887878777U, 0x7788888888878778U, 0x8878878787788778U,
  0x8778788777888787U, 0x7877878788777877U, 0x8777887778888877U, 0x8778888788788888U,
  0x8878888787888888U, 0x7887888887877787U, 0x8878877778787887U, 0x7877788788888788U,
  0x7877878778778888U, 0x8787878788878778U, 0x8887787877787787U, 0x8787877788788887U,
  0x7778877887887887U, 0x8888877877887888U, 0x8878878878887887U, 0x7788778878787888U,
  0x8877787778778888U, 0x8787888888787788U, 0x7877777787787887U, 0x8778787877778788U,
  0x7888877778778888U, 0x8778887787878788U, 0x8888888788878777U, 0x7878888888788878U,
  0x8877878887787878U, 0x8888787788788887U, 0x8878877887788788U, 0x8777878888887878U,
  0x8887877777788787U, 0x7877778778787778U, 0x8877878787777777U, 0x7788877787777878U,
  0x8887887778878888U, 0x7778788877778778U, 0x7778778887878888U, 0x8878778778887787U,
  0x8787777888877778U, 0x7887878787888777U, 0x8887787878888877U, 0x8877878788788878U,
  0x7788878788788788U, 0x8878788787888878U, 0x8878888788878878U, 0x7788888878777787U,
  0x7887888888888878U, 0x8787878778788878U, 0x7787888888778878U, 0x8788787887878777U,
  0x7888777888787887U, 0x8787788877778878U, 0x7878888888888878U, 0x7878887787778888U,
  0x7788888888777888U, 0x7778788788778888U, 0x8777887788777878U, 0x8778787787878878U,
  0x7888878877787877U, 0x8888788777778778U, 0x7888787877777878U, 0x8887778888777888U,
  0x8777878787887777U, 0x8878787877777887U, 0x8877788878777877U, 0x7888877777788887U,
  0x8888877878878777U, 0x7777877878778887U, 0x7888787878777888U, 0x7888788777778877U,
  0x7778778787787887U, 0x8888787888887787U, 0x7788878887878778U, 0x8887887878888887U,
  0x7777877887888878U, 0x7888887787778888U, 0x8878778887887787U, 0x8777788777788788U,
  0x8887777878778888U, 0x7778778787787878U, 0x8788878888778878U, 0x7888888788788888U,
  0x8778888788788878U, 0x7878777777877777U, 0x7887788777878888U, 0x8888888788878778U,
  0x7888878888788788U, 0x8877888888877888U, 0x7888877778887878U, 0x7888888787878778U,
  0x8787878787888878U, 0x8888777777778778U, 0x8878888888888887U, 0x8878788887788787U,
  0x7787878877878888U, 0x7878888877888787U, 0x8887877787877887U, 0x8777778788777787U,
  0x8878877888878878U, 0x8887887878877787U, 0x7887878878787878U, 0x7778778787888878U,
  0x8788787777888787U, 0x8888878788888887U, 0x7887878888777788U, 0x7777778787888888U,
  0x7777877788787888U, 0x7888778778788887U, 0x8887888877887778U, 0x8778787878888888U,
  0x7888888887778887U, 0x7788787777787787U, 0x7888888888887878U, 0x7787777878888888U,
  0x8777788877888777U, 0x7787777888788788U, 0x8777888877887887U, 0x8878878888787778U,
  0x7887777877888887U, 0x8777878787878887U, 0x7778778777887878U, 0x7888877877788888U,
  0x8887778788878778U, 0x7787887787788888U, 0x8887887788878788U, 0x7777788878788887U,
  0x8878787878778887U, 0x8878887788787888U, 0x8888777888877777U, 0x8788877878888787U,
  0x8888877788777888U, 0x7877888887778778U, 0x7788788888778777U, 0x8877888877888878U,
  0x8887787778778878U, 0x7887887787778787U, 0x8878878787887788U, 0x7888777788777788U,
  0x8878887878787877U, 0x8888878887788878U, 0x8888777788878778U, 0x8888878888878878U,
  0x7787778888788788U, 0x7887887778878888U, 0x7788788778878877U, 0x8887888888887888U,
  0x7877877888887887U, 0x8777777888888887U, 0x7888887878888878U, 0x8777777877888888U,
  0x7888888888778878U, 0x7787887888778787U, 0x7887888787787788U, 0x8878787888787788U,
  0x7788778787788887U, 0x8887877887777787U, 0x8888877778788788U, 0x8878778777778778U,
  0x7888877887888878U, 0x8887878888788787U, 0x7778877878778787U, 0x8788888888887887U,
  0x7878777788888877U, 0x7877877877777878U, 0x8887878888878777U, 0x8788777888878777U,
  0x7788787778887878U, 0x7887787877877888U, 0x8887788777777888U, 0x8888787888777888U,
  0x8888887888877887U, 0x7788888887887788U, 0x8787878888778777U, 0x8787788878888777U,
  0x8788888788877788U, 0x8887878888888787U, 0x7888878778878878U, 0x8777878878788887U,
  0x8888877777787787U, 0x8787877877788888U, 0x8887788888888877U, 0x8787888888788888U,
  0x8778788787788878U, 0x8887788887877888U, 0x7787888788878888U, 0x8888787788877788U,
  0x7877887878888788U, 0x8787887878778888U, 0x8778877888888877U, 0x7887888878887878U,
  0x8777788888878888U, 0x8788787778878777U, 0x8777787887787888U, 0x7878788888777887U,
  0x8888877788887787U, 0x8787887877788788U, 0x8877788888877777U, 0x8788787778777778U,
  0x7787878887887877U, 0x8887877778778878U, 0x8878888888888787U, 0x8788887887888778U,
  0x7878887888777777U, 0x8888887887888887U, 0x7778888778877778U, 0x7888888878888787U,
  0x8788888878788878U, 0x8778888788878788U, 0x7887888778877777U, 0x8888777778888788U,
  0x7887787888788877U, 0x8877888788787787U, 0x8887887787788878U, 0x8777878878777788U,
  0x8888878777788878U, 0x7888878888788888U, 0x8878888888777878U, 0x8878788877878888U,
  0x8778878877778878U, 0x7777888887888788U, 0x7878888888878877U, 0x8788888888878887U,
  0x8888888778788777U, 0x7887878878877888U, 0x7778878877877888U, 0x8778878877788888U,
  0x7887787788888778U, 0x7888788877878878U, 0x8787888777878788U, 0x8788878877888877U,
  0x8888878778787788U, 0x8878787787887778U, 0x7787778877877788U, 0x8788887878788787U,
  0x8888878887777778U, 0x8777887788888778U, 0x7788787887787778U, 0x8878777888888878U,
  0x8878787888888888U, 0x8778777877888887U, 0x8877878788888888U, 0x8888778878877877U,
  0x7787878888777888U, 0x8788777887877887U, 0x7888787888888888U, 0x8888888887787787U,
  0x8788887778888787U, 0x8888877877788888U, 0x7777888877788788U, 0x8788878878877887U,
  0x8788777878778877U, 0x8787778888778778U, 0x7787787888778778U, 0x8777888778887788U,
  0x7777778787878888U, 0x7887878778887888U, 0x7787888877778888U, 0x7788877888878777U,
  0x8878887888877787U, 0x7778878778778887U, 0x8888777878888887U, 0x8877888888888888U,
  0x7778878788778787U, 0x8888878788787787U, 0x7777788878777888U, 0x7888788878887777U,
  0x8878887788877878U, 0x7877888787887788U, 0x8887787877878888U, 0x8878878788878887U,
  0x8878887888887888U, 0x8788777787878788U, 0x7888788887877888U, 0x8887778888787888U,
  0x7888788887888777U, 0x8888888778878777U, 0x7878887777887887U, 0x8787887888788878U,
  0x8887878877788788U, 0x8887878788887888U, 0x7878877878777788U, 0x8887888888877788U,
  0x7777788877887887U, 0x7888778787788888U, 0x8887787877888787U, 0x8888878888877778U,
  0x8787888787877887U, 0x8788888878778787U, 0x7878778887887887U, 0x8888888888788777U,
  0x7887777888788887U, 0x7878778887777888U, 0x7778888878887787U, 0x7888787788877778U,
  0x8878877888887788U, 0x8877877787888787U, 0x7778888888888878U, 0x8887888878878888U,
  0x8877788888877888U, 0x8889888778877788U, 0x7788877887888878U, 0x7888877878777788U,
  0x8887787888878777U, 0x8787778787887777U, 0x8877787888787778U, 0x7877877778788788U,
  0x7877887788788887U, 0x8888788887777877U, 0x7777887888888877U, 0x8888788877887787U,
  0x8888777878877887U, 0x8777788887877877U, 0x7777787888888778U, 0x7777887887778788U,
  0x8788877787888887U, 0x7777887888888777U, 0x8878887888778788U, 0x8888878888878788U,
  0x7888778887888877U, 0x8888787778788877U, 0x8878887888788788U, 0x8888877788788887U,
  0x8788878887877787U, 0x7878877888888888U, 0x7778788788878887U, 0x7888778788787788U,
  0x7877887777888788U, 0x8888888787878887U, 0x7777787787788888U, 0x7778788877778888U,
  0x7877887778877878U, 0x7887878777888778U, 0x8878877878888787U, 0x7787887787888788U,
  0x7878888887878878U, 0x8787778787888888U, 0x7788887778787787U, 0x7777888888888887U,
  0x8877777778788887U, 0x8878877887778888U, 0x7877777888887887U, 0x8887887778778878U,
  0x7888887778888878U, 0x7878888778888787U, 0x7788878887887878U, 0x7877887787777788U,
  0x7878877878887887U, 0x7777877888878888U, 0x7887877878888777U, 0x8787877888778787U,
  0x8778887888888787U, 0x8777777788787888U, 0x7878778888787888U, 0x7887888787787788U,
  0x8778887888788787U, 0x7878887887787878U, 0x7778778878888888U, 0x8787888887778788U,
  0x7877777877788778U, 0x8878888778887887U, 0x7777777778887888U, 0x8878887777778887U,
  0x8788877787788878U, 0x7777878787788877U, 0x7787777888877788U, 0x8778887878778887U,
  0x8778887787888888U, 0x7787878778778878U, 0x7887787888787787U, 0x7778887777778878U,
  0x7877887887877888U, 0x8888887777788888U, 0x7877787788777888U, 0x8787887877888878U,
  0x8888787877887888U, 0x8878888778888777U, 0x8777887888787787U, 0x7778888887777778U,
  0x8877787888878787U, 0x7877888777877878U, 0x8888877887887777U, 0x7778788778777787U,
  0x7878888887877888U, 0x8888887887788788U, 0x7787788787777887U, 0x8887778887787877U,
  0x8788878787788877U, 0x7787888877778788U, 0x7888788888788888U, 0x8787887888877887U,
  0x8877787887888887U, 0x8787787788877888U, 0x7888888788778778U, 0x8777778777878887U,
  0x7788888778887888U, 0x7778888877887887U, 0x7787777888878887U, 0x7887777787788878U,
  0x8787888878878888U, 0x7888888777887788U, 0x7887887777787887U, 0x7777787877777788U,
  0x7777777878888777U, 0x7878887877888778U, 0x7788877777878887U, 0x7887787887878788U,
  0x8887887887778878U, 0x7778878887788788U, 0x7887788787877877U, 0x8888877878887888U,
  0x8787777788888888U, 0x7877888888788887U, 0x8778887878878778U, 0x7788877877888877U,
  0x8788878888877888U, 0x7788888787777778U, 0x7888787878778887U, 0x8878888878888788U,
  0x7877888888877887U, 0x8887887778778788U, 0x8788877888887777U, 0x8878887888888878U,
  0x7878787888787778U, 0x7787778787887887U, 0x7788888878877788U, 0x8787878878787877U,
  0x8788788878787888U, 0x8787878887888787U, 0x7777887788887878U, 0x7888787888877788U,
  0x7877887878788888U, 0x8778778788788777U, 0x7877787888887788U, 0x7787887878788877U,
  0x8877878887877788U, 0x7777877788888878U, 0x7787878877788877U, 0x7788888878787778U,
  0x7778778888887778U, 0x8878887788778788U, 0x7777788877887887U, 0x8887877878777777U,
  0x7888787878887787U, 0x7778887888878787U, 0x7887787888778878U, 0x8887888887887878U,
  0x8787877878788888U, 0x7888788788778788U, 0x7877787878878777U, 0x8888888777888778U,
  0x8778878887887877U, 0x7878888888788878U, 0x7887787878878888U, 0x7888888878777787U,
  0x7887887887888888U, 0x8888778887877878U, 0x7877878877778888U, 0x8888877878777778U,
  0x7787877878887887U, 0x7877787878778878U, 0x7887787888788778U, 0x8887788787887788U,
  0x8888877788888887U, 0x8778777787778877U, 0x7887787877888877U, 0x8878787788778777U,
  0x7887888888778877U, 0x7788788878787877U, 0x8777887777778778U, 0x8878878877787778U,
  0x7787887778887787U, 0x8877888778788888U, 0x8777778888777878U, 0x7787888877888878U,
  0x8887777887878877U, 0x8887788888788877U, 0x7777787887787888U, 0x8878878787787787U,
  0x8887788788887888U, 0x8788888878888887U, 0x7887787777778878U, 0x7878887888887878U,
  0x8888877888887877U, 0x7878878777887778U, 0x7778788887787778U, 0x7888777788788788U,
  0x8887888877887788U, 0x7877777888888887U, 0x7778787878888888U, 0x8887777878777788U,
  0x8787888778788887U, 0x8788778888877878U, 0x8778787888887877U, 0x8778777778878888U,
  0x8877877777888888U, 0x7788777788878778U, 0x7888787788787778U, 0x8778878878888788U,
  0x7778878778787887U, 0x7879788888888887U, 0x7788877878878788U, 0x8788988888778888U,
  0x8878787887787778U, 0x8787878877778787U, 0x7887788878888788U, 0x8888888888887888U,
  0x8888878777787787U, 0x7878888887877788U, 0x8888887778788777U, 0x7787878878788788U,
  0x7878888888878878U, 0x8777778788778887U, 0x7887777788888877U, 0x7888887887888877U,
  0x8878877888887877U, 0x8787787877888888U, 0x7778887778787878U, 0x8887777888788787U,
  0x8887878888877877U, 0x7888888788778878U, 0x7777878778878888U, 0x7787878888778878U,
  0x8788877788878877U, 0x7778887778788888U, 0x7888777777887878U, 0x7788888788877877U,
  0x8778887888787878U, 0x7787878887777887U, 0x7887788788788877U, 0x8778888778887877U,
  0x7877778887887777U, 0x8887888788888878U, 0x7887887888877888U, 0x7887787878778888U,
  0x8878878878877778U, 0x8878877888787788U, 0x7778777888887878U, 0x7788787788888878U,
  0x7877778788888777U, 0x8877788888887878U, 0x7887877787787887U, 0x7888888878787777U,
  0x7887877887788877U, 0x8788878778888788U, 0x7888888888788777U, 0x8787887887877887U,
  0x8877788878778888U, 0x7777877787788888U, 0x7787888888887787U, 0x8788887888888788U,
  0x7888877888888788U, 0x8788878788888878U, 0x7888877777888888U, 0x8777787887887778U,
  0x8778888777887887U, 0x8787887888777788U, 0x8787887878788878U, 0x8887787878778787U,
  0x7778788887888878U, 0x7888887877778878U, 0x8787887888887777U, 0x8788878888888877U,
  0x8878778887887888U, 0x8888788787778878U, 0x7878877787887877U, 0x7887887778788878U,
  0x7878787878888887U, 0x7888888777887888U, 0x8877787878787888U, 0x8777877877788777U,
  0x8877878887888887U, 0x7887778878888878U, 0x7877777878888787U, 0x8788877777787888U,
  0x8888878888888877U, 0x8778887778888887U, 0x8787887887878877U, 0x8887778888788887U,
  0x8887888778788777U, 0x8877888787788877U, 0x7777787878778788U, 0x7787788787777778U,
  0x8878887887878887U, 0x7778878778788877U, 0x7887887887878878U, 0x8878788878888787U,
  0x8878788787878888U, 0x8878787887788878U, 0x7887787878777788U, 0x8877878878787788U,
  0x8888787888787788U, 0x7788887888787887U, 0x7778787778777788U, 0x8878787888787877U,
  0x8888878888778888U, 0x8888888888888788U, 0x7888887777877787U, 0x7877888788887878U,
  0x7877888887888788U, 0x7787788787777888U, 0x7887978877887887U, 0x8877788888888777U,
  0x8787887787788888U, 0x8888888878787777U, 0x7788788878878777U, 0x8887777777877888U,
  0x7877778788878788U, 0x8877777788778888U, 0x7888887787877787U, 0x7787888887788888U,
  0x8888888778787887U, 0x8887878778788777U, 0x7788787878788777U, 0x7887888888888888U,
  0x8887887887777888U, 0x8887878777787777U, 0x8877877878877888U, 0x7888877787888878U,
  0x8788877888787787U, 0x7887888888888878U, 0x7787778878877787U, 0x8778878888787787U,
  0x6663797379665469U, 0xab67a89963858a77U, 0x97b78599789785baU, 0x7b777a966985d97aU,
  0x48788ca946a5a767U, 0x5b7a99a988687aa9U, 0x869883aa75966ba5U, 0x879859575a6579a9U,
  0x869467b657456458U, 0x9a56999a82975887U, 0xa77864b9455868a6U, 0x67666b9684974467U,
  0x378996a86693776aU, 0x76595668477593b6U, 0xb68754a9765a8686U, 0x8967757468667899U,
  0x759687b468957866U, 0x7a64b98a83858877U, 0xa8a7649754555769U, 0x99669c9676786589U,
  0x498986b757776479U, 0xa65a776768899797U, 0xb9858499757a8589U, 0x757aa6855878768aU,
  0x564469a559b53657U, 0x6955a67a95956857U, 0x879784aa66b679aaU, 0x79866a555586dc57U,
  0x6876ab9954a66469U, 0x5a69a8777767979aU, 0x759a74a9855a9a6aU, 0x86786a656ab57a9aU,
  0x5b3579a567594664U, 0x6664a55a84866937U, 0x986875a683534958U, 0xb566679448789856U,
  0x6679877944975557U, 0x47aa56a9a7897896U, 0x949874aab44a856aU, 0x8396668a65a379a8U,
  0x797588a686a84968U, 0x977486a995977867U, 0x8aa874a965865899U, 0x9996a875548b9baaU,
  0x4889bb9966966599U, 0x896a8b786895a5a9U, 0x7597659b7568ab79U, 0x77989ab96a94aa99U,
  0x6662c8948b6c5695U, 0x98736699789468a9U, 0x7898b46754843669U, 0x99b666939777776aU,
  0x578bc7aa336683a9U, 0x66687a99999aa595U, 0x87776499a59a66a8U, 0x75a868a578a778c8U,
  0x8654b6a49a6a6446U, 0xaa7577a99394a879U, 0x57a7826a555676aaU, 0x7769a956589b9d9bU,
  0x367a89aa66a7a6a8U, 0xa989ab999869b7b9U, 0x958675bb85799c86U, 0x859989967a6678aaU,
  0x6976678398aa9795U, 0xba84668995866787U, 0x69a8848cb8956787U, 0xaa987a757a79c9aaU,
  0x487a9ba964aab5aaU, 0x7a99c8b886989bc9U, 0x977995bb86aa9997U, 0x89977b996c6877abU,
  0x976676967b896777U, 0x9695788696987869U, 0x7aa8886a78565899U, 0x997788667879d999U,
  0x75768cc665987798U, 0x6a779778a77596a7U, 0x7579679a5679a869U, 0x7aa96b979c96779aU,
  0x96739ab5a9656787U, 0x5996696763897797U, 0x89977289b7787958U, 0x65879a688b786959U,
  0x277aa78776977669U, 0x6499a8b8b67a6b84U, 0x977664a978896769U, 0x869a868a49967999U,
  0x8866867675a5895aU, 0x9a86856795857877U, 0x7858738a6a7675b6U, 0x5948576758759a67U,
  0x5874769976a76866U, 0x5878b5877896699aU, 0x7697788786869a95U, 0x7a6a69966a588777U,
  0x924298b25987554aU, 0x8866987972797968U, 0xa858a2968967a677U, 0xa9945b995787c866U,
  0x277667ab67965987U, 0x66196689886676a6U, 0xa5896398b5797999U, 0x9766667307957988U,
  0x8351a79368676449U, 0x8a77a67c73868948U, 0xb668a2c966878789U, 0x667799866779b678U,
  0x28877c7867a6a969U, 0x682899877769b7b9U, 0xa69a63a976576966U, 0x876659533a746896U,
  0x8544698587983657U, 0x5697975ca4947978U, 0xc79795bb6ac6787aU, 0xa9a889952685b988U,
  0x47898aa665c4866bU, 0x675b7959489595c6U, 0x938a74c97559789aU, 0x876948574794788aU,
  0x764489b399624839U, 0x6924a65b97957868U, 0x958893aa5a9358a7U, 0x8a78a88647768996U,
  0x4a89996945a76549U, 0x4c599a69688685a9U, 0x9499639875577a89U, 0x86477aa47aa37977U,
  0x677476a499568575U, 0x8966879977954747U, 0x7898739857765667U, 0x85a78975677b678aU,
  0x779c96975566749aU, 0x67aa69885858b684U, 0x767665bb74588598U, 0x8998a79686668995U,
  0x4355a8a59c883786U, 0x79a577a665866746U, 0x69a7b47ab7556a6cU, 0xa6797a975a79869bU,
  0x6787a6b966579679U, 0x66589999a89a9886U, 0x9486757ab748868bU, 0x64a86ab53bc486caU,
  0x6a7667986a8b9864U, 0xc79476b687869888U, 0x9b9775786575567aU, 0x79678b86776a777aU,
  0x77799aba4598a4c9U, 0xc8b9679979c9b7c9U, 0x9777658ca56ab779U, 0x88b887aa8a66789aU,
  0x98c5a9a6a75a9a89U, 0xa9b6a7b8a39799b8U, 0x9b99837a887857bbU, 0x7999ac74ba978ba7U,
  0x477aba9a76b9b59bU, 0xa998a998a77b77b9U, 0xbb8994b987a999a9U, 0x9aaa5999697788caU,
  0x65928992a96b97c7U, 0x99c5778963855897U, 0x7ab7726b77855b8aU, 0x9b6da9759889a5a9U,
  0x2687aba7767a64a9U, 0xb696987876879988U, 0xa98a8599a6ac8787U, 0x8b997b955ba97898U,
  0x966296b359879859U, 0xaa7799b893989758U, 0x8c8861989b9885baU, 0x67866759998a9b98U,
  0x35776a898957599aU, 0x7a59a7c8987aba7aU, 0xa686757a58786a97U, 0x78aa5a574977588aU,
  0xa3707770663a757aU, 0xaa89a69b63994766U, 0x9968a3b789699766U, 0x8566678a7b7a7966U,
  0x38869b7876579a88U, 0xa84a9776673977a6U, 0x869561aa89776799U, 0x7a9749523a668678U,
  0x7473789456976559U, 0x8986a66973965798U, 0xb66774c9ba6773a5U, 0x3664696577848875U,
  0x578668887584768aU, 0x7a58c468796557a9U, 0x8585649976a46763U, 0x67576b965c36876bU,
  0x885276c488969548U, 0x6956b67a62886957U, 0xb87863aa66b85679U, 0x68b6795865866976U,
  0x267c7796769268abU, 0xa39796b8974b69a5U, 0xb98444c967756788U, 0x99767b7a6b878789U,
  0x7454a78676a9756aU, 0x7955769774859859U, 0x8858b59769956755U, 0x896997867a779795U,
  0x798777a66696a569U, 0x95398558b89597d6U, 0x979766a7a5597778U, 0x9689777459646878U,
  0x7524c87589334659U, 0x9a26879983865867U, 0xa887b3a769567966U, 0x958697664788a969U,
  0x3779b67a86c56569U, 0x576978788776a5a7U, 0x9588539da64b887aU, 0x7897686466a26695U,
  0x5945899486652664U, 0x5677977884857847U, 0xa6899497a4654766U, 0xc76a99a556958798U,
  0x6989a89a6469a457U, 0x4c88aa4858768494U, 0x948995a7b449869bU, 0x8477789777b37887U,
  0x677499746a775898U, 0x878677a785947867U, 0x66a7a59b97959568U, 0x9aa66aa6597a993aU,
  0x797996a954689598U, 0x9888cb89a979a698U, 0x8697859895687a96U, 0x78977aa96b6589bcU,
  0xc5a667778a869bc8U, 0x78da99a6958a89c9U, 0x8ca8765a5b98969aU, 0x76b98a79b58957a9U,
  0x568994969b59aa98U, 0x975666b9599a5797U, 0x8987978899b8a7a7U, 0x86b896a587a869a9U,
  0x83758775767a9897U, 0xab9867a6939b5857U, 0x7979b46aa868767bU, 0xa6a779698d8bb955U,
  0x38899c89aa5a7796U, 0xba57a888a879b878U, 0x6a85957aa959aa8aU, 0x8798aad5297a6989U,
  0x67527b636a869798U, 0x8997768663977767U, 0x7ab793695596776aU, 0x96486ab7977a966aU,
  0x3b85a898a73687b8U, 0x9b7999677856b666U, 0x6978a36ba78a6867U, 0x78989668375697b8U,
  0xb3627784955b89c8U, 0x699a878853886877U, 0x8648937a6b5ab985U, 0x556c8a8a7a977bb4U,
  0x48766a98898caa87U, 0x7a39a45878566586U, 0x8776916678aa6bb6U, 0x7a866b7337797879U,
  0x65446ba4a7754286U, 0x8755a86b76976758U, 0xc88875a789667875U, 0xa877b9a6567799a7U,
  0x788aa96a5696866aU, 0x6a8799a7685887a5U, 0xc579949a965a7a99U, 0x8997585a67a49977U,
  0x654596955987a757U, 0x8a65988985959867U, 0xb89874a865956677U, 0x68456a45787a9a68U,
  0x5685aa89649463a8U, 0x988b66876879a8a7U, 0x959a559aa4599955U, 0x976a799769666899U,
  0x8643959489744777U, 0x9566a76962855837U, 0xa588a3ab8a7675a8U, 0x6566686746857857U,
  0x2786999755776569U, 0x6a5ab76959667797U, 0xa49c557894579864U, 0x86579bb548558679U,
  0xa99288936a6ba676U, 0xa85598a76587a9a8U, 0x98a7a38a57a5557bU, 0x67c668969878b86bU,
  0x377868a87696a589U, 0xc9999997886a97a8U, 0x7b9673a986a77756U, 0x9b798a8a79688987U,
  0x7556667458665a59U, 0x7a5656b685868998U, 0x87b88597596666aaU, 0x769568976597b869U,
  0x6677899866a4a697U, 0x886a69683985b4c9U, 0x859966bc56798a77U, 0x8689a4956776a877U,
  0x7966977689666786U, 0x8957766786885958U, 0x76a9998a69886685U, 0x67778a8689755859U,
  0x6887a7b879596897U, 0x6a6c8b6879777697U, 0x7886777976696988U, 0x977999a6ab65899bU,
  0x9586ca94c7655567U, 0x99a687a873894867U, 0xa888a4a884579967U, 0x5669aa7666782466U,
  0x5689726897658699U, 0x7569a88889578686U, 0x967586a988689574U, 0x86786873667789b6U,
  0x7694ab859baaa8a6U, 0xbab777b6848868b7U, 0x5bc7a45998a6896aU, 0x987689a5ab8a446cU,
  0x399693a8866b87a6U, 0xb56797bac98bbd89U, 0x6976a48ba7aa8456U, 0x77a59798489a87cbU,
  0xa975a8a7a74c678aU, 0x56a867679799a878U, 0x6869b568b9989ab8U, 0x967cbb697e8769c6U,
  0x897a789789896a6aU, 0x56b86689798b68a8U, 0x977677b6a978a7aaU, 0xa88b96ad78a7876aU,
  0xaa6659b5776a689aU, 0x99789779847a9868U, 0x987977664b67a788U, 0x58a7aaa76689aa87U,
  0x698b7a9877a9697aU, 0x68a8789859989597U, 0x949965aa98698a99U, 0x8a89779a9866795aU,
  0xa955879488a77766U, 0x999966a676855779U, 0x6a78658bb7a65978U, 0x8678994688898896U,
  0x46796968657776a9U, 0x6998b9887997a997U, 0x9687646a85b988a8U, 0x8ab77b7b89967689U,
  0x6a6c9a5743975b79U, 0x7946886a8877a867U, 0xb737aba757736685U, 0x47777568757b5674U,
  0xaa88565775976677U, 0x86ac63796886b899U, 0x88975a67a7697675U, 0x7669b6b8a7468566U,
  0x7a588678466848a9U, 0x7959675a7a787857U, 0x974678869799a685U, 0x679767795a837884U,
  0x76975856ab576a4aU, 0x468b578768864759U, 0xb5857a5698468766U, 0x756795a965559556U,
  0xa77a869976578976U, 0x4759875a79877989U, 0xa697787457996668U, 0x4667695965665769U,
  0xb78955787767753aU, 0x666a394848966577U, 0xb69957747888a695U, 0x9a56957477567697U,
  0x6b9c69ab566898a4U, 0x7a647a6898759898U, 0x76677a6756a54488U, 0x77b659a476949666U,
  0x997976895559a559U, 0x69bb786748a6656aU, 0xa7887a7676a596a5U, 0x9769b6caa958785bU,
  0x865966aa59966aa8U, 0x7b67a85a79889776U, 0xa6889a87578676a7U, 0x9765597756769668U,
  0xa77486a6876a985aU, 0x6969857978a56779U, 0xa899a95779768456U, 0x776ad7b7a9956677U,
  0x694b586935575aa9U, 0x688a975a99799758U, 0xa668899658786659U, 0x6698687956655359U,
  0x777973687a6a7a67U, 0x949b567657765655U, 0x86898a559a768458U, 0x7666b4aa94477877U,
  0x886aaa9966697caaU, 0x9b9a698a7a79a879U, 0x9868ba95687a8a77U, 0x666678baab795577U,
  0x8a986596bb8a7a79U, 0x666a65577895b687U, 0xa8779a69da8a867aU, 0x7698c5c9a5797767U,
  0x6859678975855898U, 0x6967875b9b769767U, 0xa477799666796885U, 0x777aa98946874487U,
  0xa884a4b76969587bU, 0x6478464759758596U, 0xb4656a6688598396U, 0x8777c6b787957649U,
  0x99688a6a65979bbaU, 0x9a67776a9b7aa657U, 0x9558aa7756786a66U, 0x7885579768655565U,
  0x99856579a94b5a89U, 0x87a9537879b88967U, 0x96989b469b6a957aU, 0x774ac4b7b7968857U,
  0x9967b7b866578ac8U, 0x998797ac9868a788U, 0xb6677ab56886a895U, 0x69598a796b887684U,
  0x85747a78ba4989abU, 0x788a845968759669U, 0xb7886b5789987797U, 0x7899b6a7a87a884bU,
  0xba59788925676a6cU, 0x793ab84c888a8689U, 0xa57797b67b99b695U, 0x6665389a49836854U,
  0x7a8476a5ba67786bU, 0x457955786795576bU, 0x958b7a67aa688985U, 0x7727a5b865558747U,
  0xb598686975367869U, 0x5977776999778798U, 0xa657797547897889U, 0x57a98777658a7986U,
  0x7788494996956a69U, 0x875a4576687a7478U, 0x7787588676a47866U, 0x8856969553767656U,
  0x985b987755457976U, 0x6985897b99858968U, 0xa74999a747745977U, 0x7866786665767464U,
  0x76887666698a865aU, 0x699b54987888c699U, 0xa5966895967c7576U, 0x7686b5b688658758U,
  0x7749768a65468a57U, 0xab85787b98776649U, 0x964749a557866555U, 0x5795696954857564U,
  0x9786458879a59879U, 0x767b543847967587U, 0xa68869a659967574U, 0x8969b5a697467658U,
  0x686a78ba65685a66U, 0x6966876b79779858U, 0xb667a8a637a65656U, 0x6757489856886596U,
  0x7895847679955669U, 0x837b676557669779U, 0xa6765a6697687586U, 0xa746a67795687998U,
  0x695a5a9a44584ba6U, 0x6944b65a99878778U, 0xa5489995657664a4U, 0x37743aa657837655U,
  0x9a8a58a7568b662bU, 0x589a446847a8355aU, 0xb798a986a6548546U, 0x966ac5a986568858U,
  0x78597cab78684bb7U, 0x6975a75a7a79a768U, 0x9677bba557a68769U, 0x999659b658745997U,
  0x9c879587a88a673aU, 0x377b557888855678U, 0x9377da56c8668686U, 0x7898b5c896657768U,
  0x9a69697a99888ca9U, 0x7a89a79a9a7a7878U, 0xa9778ba6768aab69U, 0x99b88a8865884588U,
  0xaa87a487ba495869U, 0x8599689898886867U, 0xb686a9677c698687U, 0x8977c7b897868869U,
  0x7a4b9b6b67755b99U, 0x9a6876788a888757U, 0x6769b97697995968U, 0x576668c739896666U,
  0x9a85657798497978U, 0x56a965a798977749U, 0x84878b49ba786686U, 0x7678c7b9a6758755U,
  0x8a697a9b49787a66U, 0xab7969989a99a858U, 0x76a88b66589a8657U, 0xa69657aa5587565aU,
  0x9a96a596b95997a6U, 0x85bb5c686765a767U, 0x8675ba499666968aU, 0x8768d4a8b7968968U,
  0x877a99787a846a76U, 0x897679696a977798U, 0x86a79a6476b65879U, 0x78c6679566877659U,
  0x8776966799576688U, 0x978a587997656867U, 0x8779ab6776866979U, 0x7767b79795868996U,
  0x89586888455769b7U, 0x7969767977798687U, 0x77687765866a7768U, 0x977558894a747635U,
  0x8a866778a94ba877U, 0x678a7598a8695668U, 0x85799756796a66a9U, 0x8788c5a88a657749U,
  0x67678989658859a9U, 0x5b98696a78897677U, 0x98669877977a88a9U, 0x7aa866a657776677U,
  0x8979687688a98979U, 0x779a688688797898U, 0xa6789a77a85a7786U, 0x7797a6a786757878U,
  0x6858a6a985568a76U, 0x7a99788b69987767U, 0xb95778a577898667U, 0x5769a867466a55a5U,
  0x9678675677755759U, 0x668b65766887c598U, 0x94766959878a9586U, 0x7997a68987768757U,
  0x5a78699864567765U, 0x4755a84c68957799U, 0xc53889b586746745U, 0x5858779565765183U,
  0xa788657665a6956aU, 0x659b7267588554a4U, 0xb7767874768563a5U, 0x786786a786667646U,
  0x7a5a6aba55685968U, 0xa748775c8c85c959U, 0xb5777bb559a56487U, 0x69a4596776857676U,
  0xb77a69987757856aU, 0x68ba657639977787U, 0xc6877a7776758699U, 0x954ab4bac6668847U,
  0x8b8aba9a67978876U, 0x7988b87b7a67a8a7U, 0xc569acb677787489U, 0x6896789796849766U,
  0xba8a8898767b985aU, 0x79c977a9675a5a7bU, 0xa987bb9597b58686U, 0x8669b7aaa65a7a68U,
  0x775a98b955966b76U, 0x6a6a975a9669a878U, 0xa5687a98678a7876U, 0x9747796b45655376U,
  0x7985a6a8bb97674bU, 0x667a7698a7776a89U, 0xb576895489769489U, 0x7778b7b777788789U,
  0x88399aa9664a4c79U, 0x8a9a9959697c9758U, 0x9547b9c656688665U, 0x897758aa49887554U,
  0x8b868689abb95b9bU, 0x53995566a867a6a7U, 0xb4669a76cb699889U, 0x6677d5d796749758U,
  0xaa5b97aa94858c9bU, 0x9c89b79b8a7a9768U, 0xb958aba9786698a5U, 0x79678b9a579b7a84U,
  0xa6897599a99a6979U, 0x79ab84695996a89aU, 0xa6997986996aa767U, 0x7899c9d6b975875bU,
  0x876b7baa56556a89U, 0x8a5896797b799658U, 0xa567a98459987886U, 0x6736588a66865595U,
  0xaa8575a68866597aU, 0x78ab557967958769U, 0xa5888b57aa6a9668U, 0x8857c4b9a4799868U,
  0x686999b765885998U, 0x9969a77b796aa798U, 0x9679a8a558788a66U, 0x9577899756765965U,
  0x97776778ba685a7aU, 0x686a557867767579U, 0x9574ab678b5c675aU, 0x8588a58695a68856U,
  0x8957ab99a6688989U, 0x7b77988a6a6a9867U, 0x9987889666797796U, 0x579aa8a9797a36c8U,
  0xaa8a8369aaa99799U, 0xa77b69686769a677U, 0x967597899a868597U, 0x7978a5b696668978U,
  0x65588689855a6888U, 0x996997977a9aa988U, 0x7877996557666676U, 0x366a976958877aa5U,
  0x6686475699b6a7b8U, 0xa97b76777876a566U, 0x867666799a589764U, 0x9b59c79765698867U,
  0x787864a898667b87U, 0x9987766a89889987U, 0xb77849a546777b89U, 0xa866867965666796U,
  0x9588779888657a7aU, 0x686a665759956569U, 0xb67787564a78689aU, 0x8667b5b678b67778U,
  0x683a889a85665757U, 0x8945a76b9c98b767U, 0x96579b7667664876U, 0x88a9888646887665U,
  0x9776866787664559U, 0x6489558869797767U, 0xa5785a668766869aU, 0x7758b6b7a5667857U,
  0xaa5997b9766b6a96U, 0x5a59973d99789898U, 0xd55897b66a96967aU, 0x5a986a696b837976U,
  0xa87665889999984bU, 0x58ba6499679b4a86U, 0xb777696388a79677U, 0x764ab5b8b6698867U,
  0xa868769a65456b97U, 0x7a69965b7a6a9858U, 0xa64869a56a798665U, 0x4876696a97755684U,
  0x96854469ba57795bU, 0x8959545968754669U, 0xb88a57457a967695U, 0x79689487a758a957U,
  0x8a8c898a65687bbaU, 0x7979c75c9a6aa7a8U, 0xb6587ac75b8898a5U, 0x3a5798a688766673U,
  0xa98646969a8a7869U, 0x699965785895587cU, 0xc878aa7679678854U, 0x7a6ac6b8a7479749U,
  0x3b786aaa45896ab6U, 0x6aa6a99d8a858877U, 0xda6889c666a36777U, 0x99a459a575866466U,
  0xba7777997659b77bU, 0x79ab95798887698aU, 0xb796b9687696a67aU, 0x75b9c8caba77795aU,
  0xa56a7a9a6655579aU, 0x6a5b966a8a6b7858U, 0xa657baa5696ba996U, 0x97795aab5b786656U,
  0x9b867456ab796a5aU, 0x778a677868676698U, 0xb57b9865cc57969aU, 0x6957a4b776958867U,
  0x8639699966565765U, 0x6a59688a76889846U, 0xa58769a42a6a6778U, 0x86666879457a7757U,
  0x79878677a9977769U, 0x865a47685775a58aU, 0xa389996969597597U, 0x8767b49675657669U,
  0x7a596769677b7ca6U, 0x7a77995b97796867U, 0xb6797b9476769978U, 0xa796599766766667U,
  0x88868877796a986aU, 0x868b575887956688U, 0x9778a96899879599U, 0x879bb5c795968897U,
  0xa779b7a99865698aU, 0x6b5bb55b7a9a9689U, 0xb577aa98689caa98U, 0x69898a5a99747796U,
  0x698855a89a5a794aU, 0x586985889787576bU, 0xb7778a768c778697U, 0x985797a87a978789U,
  0x8878888778777788U, 0x7778887787888788U, 0x7878788787877788U, 0x8777887878778888U,
  0x7778887888877888U, 0x8788887878888778U, 0x8888787888878778U, 0x7788788788777777U,
  0x8778888788788878U, 0x8888887888877887U, 0x8787888878778887U, 0x8887778888787788U,
  0x8788878788787788U, 0x8888877787788888U, 0x7887878878788788U, 0x8888788887878788U,
  0x8788888878888778U, 0x8778887788888788U, 0x7788877888788777U, 0x7887888887888777U,
  0x8787787878877887U, 0x8788888788887878U, 0x7777888787788888U, 0x8778888777888878U,
  0x8888888788788878U, 0x8788888788778878U, 0x8878888877878877U, 0x7877877878888788U,
  0x8788888887878887U, 0x8778788887878777U, 0x8878888878778778U, 0x7788888787788778U,
  0x7878887777788877U, 0x7888777788887777U, 0x7887787888787777U, 0x8888788877877778U,
  0x8877877778887877U, 0x7778877777787878U, 0x8878788788887878U, 0x8877888887878888U,
  0x7887887777887888U, 0x8887788877887788U, 0x7888887788887887U, 0x7777888777887878U,
  0x8778888887788887U, 0x8777888778878878U, 0x7787788877888777U, 0x7888878888888877U,
  0x8887878778887888U, 0x8788877788887777U, 0x8777777878878788U, 0x7778787777788788U,
  0x7878788878788778U, 0x7778888878888777U, 0x8778877788788788U, 0x8788888787777877U,
  0x8877888888788787U, 0x7888777887888778U, 0x8888887888787787U, 0x8878878887788877U,
  0x7887878878788877U, 0x7878877887787877U, 0x7887777787878778U, 0x7887878777778877U,
  0x7788777887878887U, 0x7888888877877778U, 0x8877888887887877U, 0x7878888888888777U,
  0x8878887888887888U, 0x7877877887887877U, 0x8887888888788888U, 0x8788888778787887U,
  0x8877888788787777U, 0x7877887788787888U, 0x8787878788888787U, 0x8888778878888777U,
  0x7888778788887888U, 0x7887877788887878U, 0x8877888778888888U, 0x8877788888888778U,
  0x8887878778777887U, 0x7888877887887887U, 0x7788788888888887U, 0x7877887887888777U,
  0x7877778788877887U, 0x8887878887888877U, 0x8877778787887887U, 0x8888887778777887U,
  0x8888777778788878U, 0x8888878877888788U, 0x8778777887778887U, 0x7887787778787888U,
  0x8887788788778878U, 0x7877888787888877U, 0x8787787878878888U, 0x8777888888887888U,
  0x7887877788788878U, 0x7888877788787888U, 0x7777787778877778U, 0x7877788888887778U,
  0x8788787777877888U, 0x7877778877878788U, 0x7778887787888777U, 0x8778787887787888U,
  0x8888778888788877U, 0x8887877887777778U, 0x8887878788887788U, 0x7788787778788788U,
  0x8777787877778877U, 0x8788787887888888U, 0x8887777877887787U, 0x8888787888888888U,
  0x8887887888877878U, 0x8787888777878777U, 0x7877887887778787U, 0x7777877788877788U,
  0x7788788887878887U, 0x7787887777788888U, 0x7888778887777887U, 0x7888878788787888U,
  0x7787777788888888U, 0x8788777888788887U, 0x8878878778878888U, 0x8777877877888777U,
  0x8887888878888787U, 0x8888788877777787U, 0x7877787888878777U, 0x7778787888788888U,
  0x7778778778877878U, 0x7888877777788888U, 0x8887877878888878U, 0x7887778888878877U,
  0x8887778878787878U, 0x7887788788787888U, 0x8888888787787778U, 0x8888877878877887U,
  0x8787878777877888U, 0x7878888878878878U, 0x7878888888787787U, 0x8778788888887788U,
  0x7888777888777887U, 0x8788787887888787U, 0x7888878878778888U, 0x8887787788877888U,
  0x8878778877888778U, 0x8788778877878887U, 0x7878777787878877U, 0x8877888888878778U,
  0x7778878777788887U, 0x7877888888877877U, 0x7777878887877788U, 0x8778878888878878U,
  0x8877877878888878U, 0x8887878877777788U, 0x8777777887877788U, 0x8877787788878877U,
  0x8788887777788878U, 0x8877878878878877U, 0x8888888877888787U, 0x8878877887877787U,
  0x7788887778877887U, 0x8788888787778788U, 0x8787788787887788U, 0x7887788887778877U,
  0x8878878788887777U, 0x7878777877887888U, 0x8788878777878778U, 0x8777887788888778U,
  0x8878878787887888U, 0x7778787778888787U, 0x7877787887887788U, 0x8888887788778787U,
  0x8787878877878778U, 0x8778888777778788U, 0x8778888777887888U, 0x8887778878788878U,
  0x8888888878787788U, 0x7778878787888888U, 0x7787788887788878U, 0x7878877778878787U,
  0x8887778778777878U, 0x7788788878778788U, 0x8887887787778788U, 0x8888778887787888U,
  0x7878888887778887U, 0x7888788877888777U, 0x8777788877787888U, 0x7788877888878877U,
  0x8777877888788887U, 0x8887787787887778U, 0x8877887778887887U, 0x7877877788878878U,
  0x8887888877778888U, 0x8888888888787788U, 0x8877778887788888U, 0x7788788877887888U,
  0x8778788788788788U, 0x8777877887878878U, 0x7788787787788888U, 0x8888777887878788U,
  0x8888778878778778U, 0x7887887788887787U, 0x7888887788788877U, 0x8787777878788888U,
  0x8788878788788887U, 0x8878787888887778U, 0x8877888787888787U, 0x8878888888777887U,
  0x7878788888877887U, 0x8778788787888787U, 0x8878778787887888U, 0x8888888887888887U,
  0x7788878787887788U, 0x8888878887788888U, 0x8878788887787888U, 0x8878888778778778U,
  0x8878878887877888U, 0x8877888778877787U, 0x8878787887788788U, 0x8777888777778877U,
  0x7787777887778787U, 0x8878888877788878U, 0x8778878878878878U, 0x7887887788778787U,
  0x8787888887787777U, 0x7887878778878877U, 0x8788878788878888U, 0x8778877888887787U,
  0x7888777887877888U, 0x8888888888888788U, 0x7887788788787777U, 0x7878777878888787U,
  0x8788787878878777U, 0x8878787787778787U, 0x8887888887888788U, 0x8788878878888888U,
  0x8878777777778778U, 0x7787788877777787U, 0x7777778877878888U, 0x8878887888778887U,
  0x7887877888778887U, 0x8778887888888887U, 0x8778787778887787U, 0x8888888777777788U,
  0x8877777877878877U, 0x7878777887878888U, 0x7878878877778877U, 0x7788778778878787U,
  0x8878878888787878U, 0x8778787878788878U, 0x8788878888788877U, 0x7878877877778888U,
  0x8788888888778777U, 0x7877877888887778U, 0x7778877888887788U, 0x8877887888778787U,
  0x8888777778788788U, 0x7787777888877788U, 0x8788787778877877U, 0x8888778888887887U,
  0x7778788877787887U, 0x8777788888887787U, 0x8887878888877788U, 0x7877878788877778U,
  0x8887878888788878U, 0x8877877877878777U, 0x8788787788887787U, 0x8787787877878888U,
  0x7778887887878778U, 0x7878888877877878U, 0x7777778878888877U, 0x7787887887877788U,
  0x8877887787778877U, 0x7787778888888888U, 0x8877778787778787U, 0x8887888778787878U,
  0x8788778887888778U, 0x8888778878878888U, 0x7777787887788888U, 0x8777778877787888U,
  0x8877877787878788U, 0x7788778777877877U, 0x8888787787787787U, 0x8887878878878887U,
  0x7888787787778777U, 0x7888878887787887U, 0x7887888888877787U, 0x7877878887888888U,
  0x8888778788787788U, 0x8777887788787787U, 0x7778787787888787U, 0x8877788888778778U,
  0x8887888877788887U, 0x8887887888788788U, 0x7887788778877888U, 0x8787887887877888U,
  0x7877878878777888U, 0x7888788888778888U, 0x7888788878887778U, 0x8788787887787887U,
  0x7788787888887877U, 0x7887878877788887U, 0x8788778787877778U, 0x7887878778788777U,
  0x8888888778887877U, 0x7887888877888787U, 0x7788888888888888U, 0x8878887787878788U,
  0x8778887878887788U, 0x8788777888888787U, 0x8887878777778788U, 0x8777888888778777U,
  0x8878777778888788U, 0x7788777877788878U, 0x7787888878887788U, 0x8888877787787788U,
  0x8887877877888778U, 0x8887877878788878U, 0x7888778878877777U, 0x8878777778888787U,
  0x7888778878787787U, 0x8787877777888887U, 0x8887888887777888U, 0x8878887787777878U,
  0x7887888877877787U, 0x7788778788878887U, 0x7888788877787888U, 0x8888778887888887U,
  0x7888888788888888U, 0x7888887788777887U, 0x8888878888787887U, 0x7777888877877888U,
  0x7788887877888887U, 0x8777787777778878U, 0x7878788877788878U, 0x8777778887888888U,
  0x8778887777777878U, 0x8878787878887888U, 0x7888888887877878U, 0x8788888878778778U,
  0x8888788777878787U, 0x8788877888888778U, 0x8788888778788878U, 0x7878777888888787U,
  0x7878878778888887U, 0x7878778788878777U, 0x7887788778887878U, 0x7888888887788877U,
  0x8887788787788887U, 0x8887878777887787U, 0x8778878788787777U, 0x8788778878877878U,
  0x9aaa678a865abba7U, 0x767777788a7798b8U, 0x8758697858687886U, 0x67689779b78a6896U,
  0xa7787867a97a8868U, 0xb6b9668858869588U, 0x7a88996798b98769U, 0x7a7c95a9b78b7967U,
  0x78597879965a7a66U, 0x9987777788797868U, 0x89577a9658598866U, 0x685a867957863495U,
  0x98776567ba786869U, 0x8687456868a79588U, 0x7686997aa88b8566U, 0x889a958796678a56U,
  0x876887877a6979a6U, 0x4585867977866867U, 0x889886956759785aU, 0x67889886658a777aU,
  0x7a887767767877a7U, 0x96897a9797899677U, 0x9889767676777874U, 0x7859668786788895U,
  0x6846876786465885U, 0x7896787766766757U, 0x6778665455867957U, 0x6757667656897567U,
  0x6685645796567755U, 0x6458377857668578U, 0x8486776996585678U, 0x8668936583757776U,
  0x7778666769587586U, 0x5774677897856867U, 0x7687586667956569U, 0x6666464485875657U,
  0x6677755964767478U, 0x65a7375777668696U, 0x7786668746687476U, 0x7857647985568765U,
  0x78977a674967a676U, 0xc9a89797867a5888U, 0x59a7a666a97bb56aU, 0x759649a997867668U,
  0x698965578b47a8a8U, 0xa69779a898789766U, 0xa989a78889987596U, 0x79776667a65a7997U,
  0x656887978a657943U, 0x6966867986856787U, 0x8788678956865649U, 0xa5a97a66678a4379U,
  0x6687747756856469U, 0x9368787867796667U, 0xa788676866767557U, 0x79879675795789aaU,
  0x87667677556797a5U, 0x6785b77977787758U, 0x975777b666989486U, 0x5755498767864654U,
  0x7985457867896569U, 0x7568546858666987U, 0x9786989776656554U, 0x8796969689358868U,
  0xb7c779898a99baa9U, 0x99baa7a9698ba8c7U, 0x99689799896aa998U, 0x99799a99b8776979U,
  0x8989a888a968a8b9U, 0xa58768a7a879a97aU, 0x7a779a888aba7759U, 0x89987a797a9b798aU,
  0xa597789897769789U, 0x7a6c8689757b7898U, 0x97689688588ac9a5U, 0x77678a8c84796776U,
  0x78748766aca75b88U, 0x895687575876868aU, 0xa97686768a966867U, 0x7778667557697988U,
  0x56558a7558755566U, 0x6656775875766867U, 0x8487856797766647U, 0x9854489666755548U,
  0x5a8695a755688659U, 0x46689a6778565676U, 0x9684966585666567U, 0x86457775566488a6U,
  0x8888587947889975U, 0x97957a967686a778U, 0x9a88896676967368U, 0x59645976868b8548U,
  0x5686566746696697U, 0xb47757a76878b799U, 0x6989996b77767755U, 0x78a777b798498888U,
  0x7979997a87a79867U, 0x876a77a689798877U, 0x77a89b6669897c6bU, 0x879887696688878aU,
  0x8877a767aa576958U, 0x85c8489887896a78U, 0x67776a79786a9889U, 0x898a85aa76988897U,
  0x8586876669668a88U, 0xb869a7a675897878U, 0x778797667979a978U, 0x865668a798796569U,
  0x69859668996b8ab6U, 0x986859a78869a578U, 0x8776977998698576U, 0x89878696686876a6U,
  0x9895a967ba9b88a6U, 0xa79a66a5788aa777U, 0x6a97a669aa686a67U, 0xa86bb6a88c8967aaU,
  0x5989a696887989b5U, 0x86c979b7b87aab66U, 0x69799789a76b9789U, 0x8897a59a9aa778b7U,
  0x6854a7649aaa5964U, 0xa8a658a676867848U, 0x6998966864b7785aU, 0x88b8867556784479U,
  0x867a949777978766U, 0x85985888985a7a75U, 0x747787aa86876589U, 0x7597968a687689a9U,
  0x78587769b6645a77U, 0x778796869a88a858U, 0x7998587778469797U, 0x6768976656766677U,
  0x7684896878475666U, 0x698897678796966aU, 0x76857a7757587866U, 0x77979768876588a6U,
  0x88a956785c88ba97U, 0x8aa87997878778b8U, 0x69977979a7867767U, 0x88696779b97a6668U,
  0x777896a8985a8667U, 0xb987b8a888995a68U, 0x8b779b8659a58777U, 0x7aa8a7a9a78a88a6U,
  0x8959666976467a77U, 0x9b8687667a88a748U, 0x7767798697667676U, 0x4769867669765676U,
  0x9675566789697559U, 0x7586557778886869U, 0x7586785867657684U, 0x7667a39a86668868U,
  0xb9a879a78899b698U, 0xb8bab9aa768a7888U, 0x99877ab6789a9a78U, 0x789668b9967a6868U,
  0x8879a879aa5879abU, 0xc6896a8857789897U, 0x9979b77979a97686U, 0x88896668858a8965U,
  0x66977877766779a8U, 0x797a9659778a8887U, 0x967795755699b796U, 0x8767869a78855967U,
  0x6988766799687968U, 0x5769565857955579U, 0x958998778a767768U, 0x8979656556978966U,
  0x6856b7868a664557U, 0x9666a87a67759878U, 0xa768a6a656666677U, 0x8769677649756887U,
  0x8985966767a6967aU, 0x47796897786786a9U, 0xa587659a96697666U, 0x8685665878858997U,
  0xa9699ab958766789U, 0x699a897b77797877U, 0xb67896b6998a9997U, 0xa7676aab76887767U,
  0x89866579a9a9897bU, 0x7999779878a9a69aU, 0xb87898977a8978a9U, 0x8688766999997898U,
  0x776879a659678766U, 0x6754a67b89745858U, 0xa6a8a7b767955577U, 0x786776a565784579U,
  0x7b78a7685585656bU, 0x6568696868856687U, 0x888767b985767469U, 0x7768749585767896U,
  0x6556599879566865U, 0x5848a96777867857U, 0x949769a656877967U, 0x9568798646778589U,
  0x7a7996a967976649U, 0x7659585868678697U, 0xa47a999677677686U, 0x885894a578a67899U,
  0x9a99a86a6a7bab99U, 0x9aa969a58a7aa878U, 0x68b7a9689aa98759U, 0x99a656859979776aU,
  0x8777a688a9596976U, 0xa6a869a898a99957U, 0x5876ab5979798679U, 0x76aad6c9a69a78b7U,
  0xacaa897b97baabbaU, 0xb8ba9885897a9898U, 0x6b987a68a899ab59U, 0x889ca899aa7976a7U,
  0xa9888787bb7aaa97U, 0xa5b989a7a89ab968U, 0x6b87bb99aaab7697U, 0x86a9d8dc989a8889U,
  0x9789aa4aa9a8aab5U, 0x99a667a566877897U, 0x5a978957c6a9585aU, 0x956883866a866469U,
  0x68888467795966a4U, 0xb66786a89879bb65U, 0x6987b86aa79a6568U, 0x89a896a7879b7a94U,
  0x9a6a976a67a86997U, 0x7767566687787777U, 0x5667995678986677U, 0x7668568877866677U,
  0x8875857898598754U, 0x6488787898876965U, 0x5787994898777585U, 0x8679979765578976U,
  0x87979556663b9696U, 0x7666568576857867U, 0x5868976368576776U, 0x8496656678788766U,
  0x86849638668a6675U, 0x6599477868677585U, 0x6679848676687687U, 0x8866545883668974U,
  0x696a649ab997689aU, 0x7967776789899837U, 0x68a7697698a58a99U, 0x658bb569688947caU,
  0x9477979888676959U, 0x668869a8989c7988U, 0x95776b7859599669U, 0x7588769aa6967985U,
  0x95b756a745598869U, 0x7455c77884776878U, 0xa64765b4587996a5U, 0x7755556956765965U,
  0x567667576776988bU, 0x9857576748657599U, 0xb777658667779967U, 0x8959766454778746U,
  0x6867aba956667669U, 0x9658a99a868ac858U, 0xc66798b877b89675U, 0x99666a9a69888a68U,
  0x7a8979799997597bU, 0x99ab8958587797abU, 0xa688979989487aa6U, 0x776979668976789aU,
  0x775964975b85685aU, 0x685577696887a778U, 0x979769797a9665a6U, 0x775757476489ac89U,
  0x65867aa756968568U, 0x67796a5867a5879bU, 0x977a58a837766a77U, 0x879a8787876587aaU,
  0x565877b736646666U, 0x5544865a7884a848U, 0xa58767a956634546U, 0x88555a5453867548U,
  0x758677a73587645bU, 0x5778868858886687U, 0xa576589754567579U, 0x855869668a65898bU,
  0x7a68a8a9798778a8U, 0x5766b8687a86a868U, 0x96879a9989986588U, 0x89676b86778898a9U,
  0x787797a888aa866bU, 0x79996a78689a8799U, 0xb6888ab565856886U, 0x886878889968896aU,
  0x9b8b89bb75699b99U, 0x566a97699899b867U, 0x8558899aa7a876a6U, 0x49698d788986aa75U,
  0x797779a979ab7959U, 0x9bb7b46778c88a7bU, 0xb979598578959a85U, 0x894bbaaaba4a876bU,
  0x9b88798a66577abaU, 0x9897888799878868U, 0x8977b9969979a776U, 0x6958799989879956U,
  0x998a787879a98788U, 0x8ab6567787997879U, 0x858989a899788766U, 0x878aa4bb97767888U,
  0x87b9ad598baaaab6U, 0xa9aa87a879787898U, 0x7ab7b975979a9c5aU, 0xa78a96a6a98a6499U,
  0x9c86a4877a7a7aa5U, 0xb66879a898ab9a66U, 0x5a87c87ab6ac838bU, 0x8aa9769965ca87b6U,
  0x57769764879675a5U, 0x8aba577566866768U, 0x6a989567869aab68U, 0x9899679a98875699U,
  0x6a799699aa699a67U, 0x66768898c77a9967U, 0x7886a669867b7579U, 0x86b786aa89a97699U,
  0x68a86656787aa975U, 0x889769a5897688a8U, 0x5a788647a8666656U, 0x76756876a8897566U,
  0x87777787666886a6U, 0xa6a669779869a878U, 0x7977787aa6897777U, 0x7898a79899787867U,
  0x99aa8879a99aaaa9U, 0xaab857a5888b8898U, 0x5b88aa5a87997a7bU, 0xa8aab665bb7997a9U,
  0x7989a889897ba7b5U, 0xa7879a98a899ba88U, 0x5a78aa9ba6bb67aaU, 0x77a9a896959a8995U,
  0x6ba678965aa8aa97U, 0xb7a678968a8a7898U, 0x6aa7667978b8758bU, 0x7a856796a677a769U,
  0xa686aa89796a8778U, 0xa9888a87a7999867U, 0x898aa76878977897U, 0x89a88969ca6a89b9U,
  0x96ac587a55468b9bU, 0x888a8a697689a8a8U, 0x76675a975979b5c5U, 0x5768789ab686cc95U,
  0x79774c799987a979U, 0xa777865847b4548bU, 0x7b8977987aa79b87U, 0x8a7b7695574a7977U,
  0x7778887788778888U, 0x6787777787787887U, 0x7877877787888777U, 0x7778788777888887U,
  0x8788778877788777U, 0x8887888777787788U, 0x7788888777778887U, 0x7878887778778887U,
  0x7877787888878788U, 0x8787788888788878U, 0x7778777888787787U, 0x7777878887788877U,
  0x8787787878788787U, 0x8877877778777897U, 0x8878778888888788U, 0x8788778878777877U,
  0x7778879778787788U, 0x7778778778887887U, 0x8788887887788788U, 0x7777887887877778U,
  0x8788877777787777U, 0x7878878787788888U, 0x7787778878777877U, 0x8878778778777788U,
  0x8887778777877888U, 0x7877787788777888U, 0x7677777778887777U, 0x7887877788787777U,
  0x8787787767878778U, 0x8788776888777787U, 0x7787787787877887U, 0x8877778878788877U,
  0x7878877787788878U, 0x7888878788777878U, 0x8788788877887887U, 0x8778877777878877U,
  0x7778787877888877U, 0x8788777788887878U, 0x7888788787777877U, 0x7877788887878877U,
  0x8888778777877887U, 0x8887878788787878U, 0x8878787787778887U, 0x8878788878787787U,
  0x8877778888887788U, 0x7887877778779889U, 0x8888877888788888U, 0x7788878878887868U,
  0x7788777887888887U, 0x7687678877778877U, 0x8778787778788778U, 0x7778877888787777U,
  0x7788778877787888U, 0x8877878788888877U, 0x8888778788787787U, 0x8788788877778787U,
  0x7787777887788877U, 0x8787778778777877U, 0x7878777788778777U, 0x7788877787887788U,
  0x7787777788777777U, 0x7788878877888888U, 0x7877877777778888U, 0x8887888788787787U,
  0x7887787887887788U, 0x8787877877788778U, 0x7888787787877888U, 0x7887877778778888U,
  0x8787688878888886U, 0x7887777778887778U, 0x7877788778878777U, 0x7888888887788878U,
  0x8787778787788788U, 0x7888877877787878U, 0x7877888778888787U, 0x7787787887787877U,
  0x8787787888888887U, 0x8777777787877787U, 0x7887788787778787U, 0x7887788777777888U,
  0x8787787777777877U, 0x7877888788877778U, 0x8777778778777788U, 0x7888877787788887U,
  0x8777787887888777U, 0x8877777778877877U, 0x7888887887877777U, 0x7778778877788787U,
  0x7787777778787877U, 0x7777777778877878U, 0x7678787777777778U, 0x7777777787777788U,
  0x8787787878888777U, 0x8778777877887777U, 0x7778777787878787U, 0x8878877887778887U,
  0x7888778778778787U, 0x7878787788888878U, 0x7787777878888787U, 0x8787877887878787U,
  0x8778788777878887U, 0x7787777787877778U, 0x7878887778778787U, 0x7788777787888777U,
  0x8887787788878887U, 0x7787887787778787U, 0x7777777887787777U, 0x8877777778888778U,
  0x8788787887777878U, 0x8787888788887777U, 0x8788788877877787U, 0x7877888888878788U,
  0x7777877887888888U, 0x7878888888887887U, 0x7978878887787877U, 0x8878898889888889U,
  0x7877787788788888U, 0x9878887787888888U, 0x7987978788777887U, 0x7788888778777789U,
  0x7878777888788777U, 0x7788777777777877U, 0x8877777887877788U, 0x7787877787787777U,
  0x7787887877878777U, 0x8777778878888778U, 0x7888787877878777U, 0x8878778877788778U,
  0x7887778887877878U, 0x8788778788788887U, 0x7878887887888787U, 0x8888878887878787U,
  0x8787777888878877U, 0x8787888777777878U, 0x7877877777877878U, 0x7787788887788778U,
  0x7887887787888787U, 0x7887787877878788U, 0x8877788888787787U, 0x7788888778878877U,
  0x8888788877887878U, 0x7886877887787788U, 0x7878778877778787U, 0x8888788788878778U,
  0x8888879878788878U, 0x8887887778878888U, 0x7887787887778788U, 0x8788877778887877U,
  0x8878887777887787U, 0x8788887887777778U, 0x7888788887778878U, 0x7778777788788888U,
  0x7878778888888787U, 0x7887777788877888U, 0x7787787788777777U, 0x8878787888878887U,
  0x8788777787788777U, 0x7887778888887877U, 0x7777778778778887U, 0x7878787777788777U,
  0x7787777887788877U, 0x7878787877887877U, 0x7777788888887877U, 0x7787877878888877U,
  0x7888787887878887U, 0x8786778888788887U, 0x7788787977877777U, 0x8887887877787777U,
  0x8877777888777778U, 0x8877877778778877U, 0x7877887778777787U, 0x7778887877888877U,
  0x8778787787887878U, 0x8887877888887878U, 0x8788787777788778U, 0x8877788888787878U,
  0x7888787878787788U, 0x7888877877777888U, 0x7787777888888777U, 0x7888887877777788U,
  0x7788787877888877U, 0x8887777878888778U, 0x8787788788778887U, 0x8888777878787887U,
  0x7787878878888877U, 0x8777787787877887U, 0x7777777777877788U, 0x8878777878877787U,
  0x8788888777787788U, 0x8877778887887887U, 0x7887887777778777U, 0x7787888787778887U,
  0x8788877887777777U, 0x7787787778877877U, 0x8878777788788777U, 0x7777777788878787U,
  0x7788777777877777U, 0x8787877877778777U, 0x7887787878777888U, 0x8887777877787777U,
  0x8877787877787877U, 0x7888788788877788U, 0x8878877787877887U, 0x8787877878878877U,
  0x8777777778888887U, 0x8778888888878887U, 0x8887877787888878U, 0x8778787887878788U,
  0x8778887877778787U, 0x7787787788887878U, 0x6887787877888878U, 0x8878887878877778U,
  0x8778887777877887U, 0x7877788788788877U, 0x7788888877778788U, 0x7778877787778877U,
  0x8888777777887787U, 0x9887777877878777U, 0x7778677887887787U, 0x6878787888877887U,
  0x8788778887778787U, 0x7887878878888887U, 0x7888778788888877U, 0x8787788878777878U,
  0x8787787887788887U, 0x7788778778877888U, 0x7787777887778788U, 0x7777878887788777U,
  0x8878878788878877U, 0x8788787878877777U, 0x8877777777777877U, 0x7878878788878777U,
  0x7887777888877787U, 0x7788787788878878U, 0x7878877787777878U, 0x8787777887788788U,
  0x7888778777788787U, 0x7787778778887878U, 0x7888777777878878U, 0x7888777777887787U,
  0x7878777878888877U, 0x7778877777877878U, 0x7777887777787878U, 0x7788877878888778U,
  0x8777878888877887U, 0x7788787888888887U, 0x7877878778787787U, 0x8788788887787877U,
  0x7888787877888888U, 0x7687777788787787U, 0x8887777878888877U, 0x8787778887888888U,
  0x7788877888788877U, 0x7877777878777788U, 0x8888877778878778U, 0x7778877788788877U,
  0x7887777887788787U, 0x8788778778778788U, 0x7877677788777878U, 0x7777777888787778U,
  0x8877887887788887U, 0x7777787888887888U, 0x7788878777878878U, 0x8777878887888787U,
  0x7888787877888887U, 0x7888788787777788U, 0x6788887888887877U, 0x7877877787887788U,
  0x8888787877788878U, 0x7877788878777877U, 0x7788677778777878U, 0x7878888887888887U,
  0x8888777878777777U, 0x7887788788777887U, 0x7778787888788778U, 0x8778877888887787U,
  0x7778778877787877U, 0x7787777788787777U, 0x8887877777878777U, 0x7887877787788777U,
  0x8887777788777778U, 0x7787777877878877U, 0x7778877888877777U, 0x7878778787887887U,
  0x8878778787778877U, 0x7888777878877777U, 0x7777887788778887U, 0x8787888787788877U,
  0x7787777877778777U, 0x8777788677777877U, 0x7878787778887777U, 0x7777778777888778U,
  0x8777778877887887U, 0x7787677778777878U, 0x7877877788877787U, 0x8777777787787877U,
  0x8778777788877778U, 0x7887787778778788U, 0x7778887878778788U, 0x8888887778778888U,
  0x7778787878888787U, 0x7777887778787877U, 0x7777788777787788U, 0x7777878887888878U,
  0x7778787877888787U, 0x7687887788878877U, 0x7877878787878777U, 0x7877877877877777U,
  0x7788878878888777U, 0x7777778778878788U, 0x7778788777887887U, 0x8778788887788878U,
  0x8888778877788777U, 0x7878777788878887U, 0x7877888787788777U, 0x7787777787887877U,
  0x7888777777887777U, 0x7787788888887877U, 0x8788778777877877U, 0x7877978787787887U,
  0x8877787887787877U, 0x7888887877787888U, 0x7788878778788787U, 0x7778878979887877U,
  0x8777677788787777U, 0x8887777788887887U, 0x7787777889988888U, 0x8788777777877877U,
  0x8788778787888788U, 0x8888887788887888U, 0x7887777878887878U, 0x7888888788888777U,
  0x7787778887888788U, 0x7777887788778878U, 0x7888777878897878U, 0x7878887787778778U,
  0x7877787777787777U, 0x7787778787778887U, 0x8887777787877777U, 0x7788778777777877U,
  0x7777777887888787U, 0x8777768887787888U, 0x7888878787878778U, 0x7788678787778878U,
  0x8878778888787777U, 0x8787787788878777U, 0x7778887788887777U, 0x8878777878787777U,
  0x7777777887787787U, 0x7788777887877777U, 0x7888777777778788U, 0x7787787887877778U,
  0x8778778887778777U, 0x7888787778778887U, 0x8878787778888888U, 0x8777788777788877U,
  0x8878888878888877U, 0x8888778787777778U, 0x8878878787878888U, 0x7887788878878877U,
  0x7877788787877888U, 0x8887888778887888U, 0x7787778888877888U, 0x7788787887887878U,
  0x8788888778888877U, 0x7778787787888787U, 0x8878777787787777U, 0x8778788877888787U,
  0x7788887887777787U, 0x8778777888878778U, 0x8788777878788877U, 0x7878878788788787U,
  0x8877888888778888U, 0x8878887888888878U, 0x8878788878877878U, 0x8888877788788877U,
  0x7888887878888778U, 0x8877788888788878U, 0x8887787887877777U, 0x8887888778787787U,
  0x7788887788887778U, 0x7888777778788778U, 0x8778887788887878U, 0x7878877778877878U,
  0x7877887878878778U, 0x8778888888778788U, 0x8887787777877888U, 0x8788788777777887U,
  0x7787887887788888U, 0x8777888788887888U, 0x8888878878778887U, 0x7888878777878777U,
  0x7777788777787888U, 0x8788777887778778U, 0x7788788877887888U, 0x8888888778777888U,
  0x8878888888887878U, 0x7777888787778778U, 0x7787788878887888U, 0x8787888788787778U,
  0x7888887887888777U, 0x8888788888887778U, 0x8787877788888778U, 0x8887788887777888U,
  0x7778878878777778U, 0x8887777888777787U, 0x7887887787877788U, 0x8888788778777778U,
